const MODEL_WEIGHTS =  `XB0cvfRp+b4aU7+9GI/lPjP2PL0M/RQ+UprtPUHxRb3adWA9PwHLvmq8LDwYKoo+A8iqPmkuP7/umtM9l/XKPkrVjT0noIU++f75vTXmuz0kt6S8Hjq1vevYjzyJls890/lYvoUxMz4nt7G+AxvXPR8tp76gaM49JMepPnVP4b3O6Qa8wFdkvnZyJz62DZ0+CbtFPnmuhz6bZxu+qNqGvrnaKD7kcvC+NrDqvG4wFb4Qea8+ocZAv4WHt75mtPa9PmVGPn2fkr1ZJa29JRYQvvtcOT3jwI29xJwYPit2iT7TpPC+vraYvjGEmz3R1og8DEKHvI8b2r0gR+g+9QcGvxZQHz5bTLw+cZ46Pt6PJD3D8X69Qw8RPmzDNb74MJ2+RdeOveqrHr6xlT489N0Pv34/wD1ATVm+oyWbvu6NGb/xJhW8+PMbv8zjRTpcyXK9LoQWPjy+WD6VDKs9Sp9pvvBWWL7vj5m+hgskPkQsPD6R9Rc+FQcDPvbx+T7FGZy+MQFfPoIiBr/r1Mi9zR/qPtKzbj5zgYs9o5tIPpq59z1vn8w9BijBvfuEAD5Wtto+U2uUvhPnMT4qTmU+9hvwvTP+4T1GN6A+4omRPh1kjT4FFdW9ezybPQZmPT7+CKe+a+PKvSyWoD0KepW+A7t9PZU4Cj2p5R8+rN4qvUBKlz6vGSE+K6gxPhp9GDuINTY+0K/QvXYkIz7AjXM+vcP/PQVIFTzdYQM+kL9ePMWBWrySHgC/bzoVvtH1hL2Q7Ya/83cePSlnZzznmY8+W5abvW8d0j0JpZE+LyhlPKdJtT7ai7A8YT00PuJO/rofPgA+OW1pPkHTor1An4o9D5WHPCL6gj14nY8+oi0YPtucAr/Fyj++9qurPl4Ekj0diH4+4YDdPfRPwT4Br24+zlPZvn9pjr4XJiC/C/Krvjd+4z35ZX49SHUJv90YOj6Tvda+tnKBvDKK+rwL9zy+dM4BPpL/zjwqSjg9bCpEPgZgMD5baio85STDPWgNET1vOWy+n7PvO2dhD77L6cq+rDOWPmA1Bz52gAu/StCgvQ6pcj7kfa09gS+1PnDIJj6EMZc+PmUyvL6E3z5EOo4+0j86v6IEiD3Zb68+2sMbvryTbT7uq0Q+HKpAPvTTCT6RPqy+TPinPvvIcD1rf8C96nwVPowIRz6GV4Y9uFsGv9nXlj6Dqyy8Z2hNPuLzvbzjDvy+DV8qPASeyL4dzwg9xJEePPYagz4A4q8+g1I5PoluOD6bqQk+5l3OPvEWxT5Qjsy8ZGGmPZuHtT6WyXy+5bA7PvG5Gz4y9OA92UEavWIsIT7wZeE+6IsnPdhxTj7wq2U+Vs19PszWXT1vKhm/jzKLPngVLb5DMn8+b110PkDhRb+DXvc9qMwMvCaPMj6nDpm7vVzVvTJTcrvj2Ha94pB8vV1vLT7aOwY9lRoyPvIfsD7Z1zU+k6O3vW8lHb43DYm8nxdMvUt0qb4OziQ9j9dJPhXgZT53K34+gfUiPjq2jr2oe6q+tuS/Pb3icr7yiaI+fGEuu8p9Z7s0MIC75+IhPG5LZLt/9aa6AeVju3XRL7tyya+8U3tnuzgBw7uexUi76KiCu6eNbT4p5HK9CC+KPga+2rubmCG7wZegvDzXpLsWFwi9g/8ivXg6Cr3tB0a7qC/EO9RrJbvQnBG7UnaPuyeMLb2ud3u9tREZPZyZiLs9uO+7/nSFvKsPZ71oNFG+JluHvuNT2j3WPhe8CpglvpLqsryI1Ge8G4kVvcQ/Zz2P4ea9ADrqPTn53j3/sOC9AE+cvdLjS7yZqhC+Z4hnPIjxhb6Uhxy+rnA2vY3atLyJDhy+yDYcPIynEr3rI+g8GB/OPLfjcL2e/K69kgtovchshT2qxW87Fi9OPLBVXj3bjIW9iw3QPfDuED6iR0e9VK1RPXL3kr3bXd49Q33BPVnLkj1rgVy+IJL7vYrIwL2J3j88sIM6O+VxUz3xxaK74fq8PMV6gzxE1oE9AzPFPIXG7zxuvNM879InvWRZbT2Yhd+96qYwvZt0Fz0xhqy9KneQPee2mT1bU8C9XdziPX6Fi7w3I829L0AHPlSGQD2IYV4+XcM/vafANT7WD4q8JowCPrRdVT4Ka2Q93tErvJfPg720L00+/J/fPdEF8T1e4IG+Io/cPRcLLb5bPjC89ebNPA9NOD4sVCu+V48/PQ1JCj730Uc+K6HcvVhkyz3Xtl0+FKSdPmBoLL6bWRM+WZuNvir5N7tD3jo+xbb4vOxQgT1pYzw+ri0rvpwNND3CmIM+4K9IvbaXmj1BLik9AULwvDEZij56PdQ8wAkzvkaPKLxlS649f684vkJBDb6Xbq08qV8kPq4bi76TWz68CbOFvfwLp76JTMY9T9EYvekOsT1Wgiw+guaROu31nL3TVZO9s7+pPO+jBD7LcaK9vk5MPZHQ7z3yPL89ix2SPW8cpL0iAXA8u1YEvUqK4jzecd+9oXCKPfGElL0h1r69TlPWvdVd37ySFdo9vRPqPJed9rtl0Sc+RjE5PpyRSz5jjFq94f1DPXZbKrxa7vA9okmqvd0WJT7JSd68UAiHvQuiYL29qQ48QIFRPooBmz3aW269lUv8PEoq4j2PxwG+Rop4vLa+ur1uRBe+KA5hPPh4Nz36rsw9NAC8PLCQzb0a/uG8BnudPfhEwrvY6iY9KKb3PNcfHj2hhuy8z8wFvjB2hr7sepi94O7DvdRsqDxuboS8mAUevoS80b5Yf/O96GSOvnSFGDx7qEs9j6A2vR7hCr4i/v29J9pdvi6I4D2eM0q+u/fdPW/4Bz7wmA6+V80VPo8DrLz3Cha+XHpJPBJdoL6jjGe9ZoUovoq1yjyNKoW+gtYiPUS6Pr19YYe+9K6QvXQ8CT2F9tC9JVD4vYAS87186hE+fvQuviaAqb05Rwu+g2oiPtbf7D2BuiS+3Pm6ve71FD7faMo9fjrMvbEGEz5B41y+HgfZvdKRZr4IKXu+95J/PUfvKb5sDIC9pvl9O0nJ9z3oKd47qxm0vB0pDr2EBfg9ohaqvZ6FQDzMMcm+Lo+sPePiRr3Jb/i+bdRVvfoxi70ylYK+KngbvsHsZb56Fb09auM6PgqWVr37zwS9wEhDPN+yhb09kpU9zmEOPFoig7riBgQ6tgI9vQp9cjySeES996ayvYnUlj3Jm6a9oZoLvvWUDz5f2We9wBiEum7/Pz1p/Gi9Z1MXPWgWGj2IBqE9HGDIvf2l9rschDs9QuJWve2h4b3d/Vk7pzxbvQdKGT4IOym8xlyUPJKCij1yCgo+A1LNvas5H70TdZa8NOZDvj3hFr2CNUK+RueRPVYparwxLMk8nBpwPSTwAj1a3E68gNfePb/g6D2cwpY999a5u+BFgTxlWyO9aIyXPOowsz32Y+890ztxvq9uAL1xcNQ9RApGPUgI2b20ULy+sqUoPUSx871CT+e9wioqvtIkcj56Nw08XSm9PCWTG742cdm+dNVdPmYKoz1kQ1e+kU5hvV6DmTznCp2+ZuG5vKEiH72TgVY9egZWPdXR/T1ietu9awd6Phe67T2tDDQ++nhvvg8XuT3EoMO9buWivX54Az7f5qq9eEq3PWouYLu+ENq8P68PPXZJoT2i9SW+vWYevuk0jj1z7JA9j4feu+W88b2wtO68xGapvV1RXT1FOrE8emDkPaMq/L2xR5w9184kvn/9MbzFdUG8iif7vFtG9b3jdKg9nnTOPQJ0t77hy2k9czd1vteg9j0+7+K9igB4Pfrwrr1fhUi+Kf1wvtm+6D2jppw9HM74ve/S3TzT5Cs9nAkovY/qx73biHA95H4mPSksdz1UMZ29in8Nvcl6+rxuZKO9idANvnpRLr46q+u8L+lcPKNbDL2CATI9aO65vELH3D1JTBs93omHPfibBb42IoK9uD7KvYDhob0dvQu9VFWgvMQszb3eO1g98Abyu3rkKT7XEME9aWZkvVxAcj0+OmA9yuptPRq4a73AbIu+YiGlvZd8rjwwc9M9KgVXvZfOaj18/f099fdNvGhqpzyfySg99qjsPUCAqL1xkCs98TejPTqjQ71s9va9rOY1PW0SQL1TP2W9ZuXKOxu4O727kGC+tgoSPGRmdr5Qc5E+TP4ivSSsA76FArG9uYBUPTBGA74Z1pG9bjKQvRvs6LyhFBA+7VSyvQHlqr1R5sW9XIOVvjDwqzx0WdU63JgCvr7mJTyS3aq7QB6mvZJHQr2J1Ma94YOAvVjErzsA8Aq9ERePPOyqvL03Syq+OOHIPYbSqj2dNJO9jvn2PQHrBb2sAXA9w9e3PZXcajxgsr291/3tvEffhj3hlvW8sLV8vvZA0Lwq9Le9bB2JveZ0L76ebs29HoY8PoLWNLx/GRK9VCB4PQ1j873YM1o92JzhvUF3BT4u8gG9/xmfPHTKiT03O7M9WEW2vYj7Pz3pt5M880N/vos6vb11nl++QsqFPQ21Ej6oIGG+fXZCPYvIab1HKwG+h4oOPeztwjyTphC8GbtsPZnXQb46T1A9WGIWPab3db5uJia8w141vkE06r1Jklg9xoWNPFMZNb2uKDQ9sgLivenWD77Dieo8j17UvGAzd70lqp29sc6rPSgiAz4ATHq9ZDxLvbA9eDzWCwU82ccCPXw4Rz3/XsC7YQGNPYn5ATyFlbG83TRqvaBRUL4z7X+9fg/DvHuuEz02H4W9z8UMvbHTUj0mxZ+8CKiKPI7uYD3c0aU972yiva81jLxgsCO9mriOvXSB9L1/pfs6pMucOm5Rab6Mizy+q3W/vW501L7B+7C9UnAGvrq9lj5Y9mq+IoB4PZp3lT4n18A8VYZvvmgKar6kDEi9DfZxPieZpL75Ym88CwmzvlLJojqr40S+U/OgPiEOjD6QKLo9PRfivaBeKz2r8VO+jUiAvn9lX75rosO8W2r2PT3kB73Ilpw9LAwRvkw8br02Lai+WVMNPtvB2T0Jggk+UK+qve/OM76CN449nSWFvfOHfzw/Tnu+85KmPmxnhT6hGaW+qNQ1PuPXhj2EPRI+y6E6vuc1R74VEBs+HKbVPRcHSb2PQGW+JWx4vriRtD34OEg+71zMvWwLVr04q4g+zfokvozNEz73XnC+Hf51PGMDFj0OYjq+qFtyvUNAU76xoOE9UE7RPdY7JL6qGwm8vScJvmpbCb71t0I8ykUIvbB7Bj0BB6W7uNm3vU8T4b0NEVs9/tJwvf6Qyj0k0iC+l8LtvYtquT36oqk7yBMPvXNsjzxMbJe9dq2lPV8Gsrw024E9hWsxvlfHmL3LmXa8wkZXvf2hs7wGDZ29/URXO28WszyxQPW899dFPUrGiDzNx1Q8fwL6u8oGpDwSX4o9TjyAvp9ucb2BKBY9dJF5PRvlgr2oXrQ83oSIvdq9Trzp+PY9k2K/u+5ghj3WlZM90Wu3vYFkS726bTG9N959PXqiDL0Zows91LdFvl3gjz37I1q9UCuDvniP6D0yBIK+XEy3PZSoUT73rsS7bulCvkNPpD1wVLm7ABjfPGBB6T3nAew8i+1WPlpVG75tvPg9Ekc9PlkAd70Laoi8n0XTveZfbb0ZlVo+IG8LPTi+OT6cE5A++rwMPIra9jxEZCs9U48NPED87j3LU4++sWTsPRL4OD7kL+W9kZiCvnotwj1vSoU9fqTkPU8g4zy9d6a8u+gTPFHPcL0gP2u8TDhlPI4ubb4YT1k+lhCDvosdGL6CDDS9oh7nPD+f+j2Cg6S9VckwvbkwOj4UiXg+HJKnPTYDJT4i0Kk9pretvZbSeb61cEM+MtiJvXuEzb0EkTG9QpucvlmrAb5bSSy+gkvbvf4xHz1Yd3E90NIuvRd/jz4QVYs+uHXLva7Uyz3HqUy9z7qBvI18HD4Vrzg+ML4UvfeR9DyxhHa+K0VOPJmWbT5EuJ69OC6qPNxFW73kolK+g728vh8qJj7Hu628QfCaPVEBgL7OH3Y94lg8veyulr75vmS9ED6OvsZeYj4nRXC+SX0IPmBSQz7cgK+92biDPYEpgb52oqA9HfOuPjwWkz2TBdO9+132vYDwhr2n0C8+XguQvuUWUL0I+/U8+m4RukZgE77XFxe86/qevnM21rzMgoO+Ey3SPkIGiD6B+lk9zWj5PKHIUb7yZ6G+HPwDvedLdr3yPOg8izQYPpuF8DwwFUA+2EnZvZepMz4PznQ9k2fAPREsCr4HYnK+7eVsPXbq/74nSHC+xv/hPG+T1LwS7qG9WkNlunAaTr79+eU+DPJNPGH5GLyGsYO9ICaDO3N1ET4gUKm8d0QJvqfU0r0eeSy+8fKyvLYRSz2Mbp+43ErBuwLYPz5/Fpa944KYPpVthr4S5f295XInOwv1sroPDn2+amkfvt7u/T2mgKe+UjlzPbfapj44A6y8vtb9vbKKlL5wPO69c1+Nvttg271yMRy+my3gPVd0Zr1yee+9H4TVvuqTfb19x2e+oHCfPoVaxj1tRsO+PMmtOwIc+z3O3X09KR4hPZr5Ij79iCG+wB+gPnaR3Tw/Bpc9BXMavd4vej0Cqfq90PETvkD9rDtrizy8Zi2CvTNwMr342Vs9NL0SPq34vzv7z7q90Uk6Pjm2rbw9pYY9fP6FvYjbMD5tSbA9iOw7PLkFirsVO6c8xUTJvZ6qND5AeXC+knALPvL6oj2RNC8+czBevqE+pT5S7p49t/PPPfrDED1dvRI9jkXKPK81gb5FRlU+mXcbvp9Ulz22pgA+S/uavaE0ET7uKlS+38f/vOp/jD12Ztc99IO7vUX/Vj56H4W8mZKUPYvfFr5dnh0+qdkLvo/QwzwS34E+sSH0vYC9nb11yRS+fmpjvr+XKb5Dko4872yrPRzl+L1POC68YixnPiIoLT5yFkC+eO1pvZRwJ77l2Zy9S54OPlCk+b3nLGi9zxAkPdb10j2QNHA9nuOrPDoyhb0JfZy9odmhvsqbSj0hn5O+L2ItvqjgpL3qrOK93rXivVUA4D2J3Ym+c4uAPTY1ur1j7FS98tjAvHAqGz6xTVu+C3bUvYDz3D02x9G9osqHvfaNq7wDQey9a4aSvlxGkLwv7DO+LBe+PWZSsrxPyWe+h8PmPf73Xb0cJsa8OuJgvYONrLxaJPO95VX2vWE3YL2kayS9QjmmvIanSD5f6jM9YxJxvtCDXT5QzAa9tDRfvCV6gr1feje+ULFGvpTGq77buTw9WkM+PgxN773g/M+9qW2uPPWABb5uiSY+2P9gvapmmrrc6qo9D72fvf6fur2L+GC9KC5GvbLr3zzlYve9dG4Fvpx69j0t0lU7sDk5vTvfgjtYzN08z91xvJx2pT2Q4Da9qqgMvhQfxLoRq4A9GN58PUWtAj1SHM+9cDEePXXynD1Bjd49DtqLvf2+aL2XHee7Dt5vPbupk73oVNC7CT+NvsQb1r2zEB++sRaTupmfTj0kcJg98K6DvPk+Vb20L668OnglPF2DBj5ye509Lxj4veWwJz3bxlM8bxeQvWycEb0ICgQ9BsPgvb6BaruF8ZC9VViRvmx7bT5HCZW+j8h0vTcRIj6i3e48PkozvnmFIT6paue92sb9vTSNvj05ezK9A2cbPl8qOb5jPzE+X5a5Pd8xCb0SBmi9SJ/6PNEmfr0PyUo+TpqKvUX1gD6OaBU+2n0Ovi6yrT3ui2Q99E6GPbjxWz3OuT2+Z/78PXvUBT4rIyC9TRE5vtoeVz6ppZs9riArPsVmtDz/dpQ9FYozvX7EO75fNWS8Ze+avCZkI74Rlyg++RF3vjgZSL0TZCS+SHvgPc7mUj4dH/S8Hs9hvULziz6UsrE98EGmPUMIoT2ooDU+E5ONvQ/0tb0I8Wc+J56Duxb6rLxGiCK9guXpOfKAVT6iEga+Qtk+vmfQBT4LqGS+SplzvtwOGr6scC055luAvZds773P+GO+U0QDPba7fD2VHik+oGgTvib+tr2iYiO+j3BbPeT5Pb2DH7C9u/fLvYiywrxpEPe87MFuvq03Sj4iIqG8x/vNPdrrlr45FCM9eXYevjq2Vr7Vi069bZyJPfT8hD6yOWO9rGHWPUrbFD2ENTg9vwbzPZOvdr3v3jk9zx59PpxENj6tccy9jaJYvnwR1b2Zok08dnGSvUYL+b0F4Cs+HIUqPv13yL0NR1q+uYMXvt+gIbw8XPm8LGBNPlDlqz4jixE+RHnsvTwTXb3d5RG+cxbPPct8DL7OE0q+gv7Qu6YJL75vwXy8eDXKPUXDp723Xwy+kl6avFs6J76vYi09VI2iu514ZzwrkQ4+m94nvL1xDj6uLKw9DvPtvUlrWz1YV7G965AbvVq6Lz6pY7O9ElQ+PRxhDT5iE787iLDVPK7Wf70laTU9atsHPcYCV726wQU8OtjPPaFXmb2955i+6wenPdh34D11iNo9zscUvaXPjT2nxZo8nXcPvSwm27yRPxK9LkgYvhAYCz6snC6+AnQoPdZog72rQW08fRIQPsurEr3RUe69Nw8gPlJiXz65b9W709J0vIOtyT2boci9Qu2Ivf+R3z3wDZI95fz+vR82lb059+e9eoSvvSBkO74r1ne+QAktvUv2Bj5P1kO+SbToPZ35j73rq8S98F3CPQzisb1zBty8rVvfPXTQbr3Guwe+xCkkPOpKRr7CoCY9CsVvvpRUsL2rrac8fbwFPQa67L1PD42750JpvbP1zzysa489t+nEvJEiYr2FQqg9lwezPfCsbz3R8HW9ZKS+veV2CTsoWfe8qgTFPZFjrL2L7m29sx9jPdrB3TzxYu08GU+2POOhNr4VpXi9L2YxvflJUbwGfMU8le8ePOWAJT0k6lM8zHkGPoDFX72+mfS6CO74PGkbgL2mTm29ZPcCvoxF+73OFbA94eS8PXfPN74MtYi9u+w1vE+YdL65aEy+AUWAvhU/gz2qOe89fgrRvY4Ptz2U7fe8ZyNHvo7Irj2ohkI9vxtdPnImlD2yc3e9TEZavSo/jT25Hzi+4xRUPVX0HL5+vdq9vO6DPXjDkL0Ve/a9lHCkPazWjr0z0Ye9LBZHPWFVjDyIUfG9pCRIPNfpJrw4MYU9K2IpvUlasL3uAIm9mPeTPHwwUT3Qng+9HOCvvLd0tzz9J4I9iYajPViAjD17LTG+Xy1dPZ9WLL6blHM9zMl6PQHNg722pYW8AwQpPPLq9T3xxDM8qTsIvZqMlb1csrk9kPZnvZt3Xj0vzQO+TPtbO/42zD36/Fm+/bvnvMKmhrw0hHa+7bYyvjc3oL5Nu4O9pT78PQ4Tt7089qi9MMnevL0AOr7aHiA+lSmdvWJJFD1tUjA+QBgHvrhlabvVEYK8ytYlvni+1TzwbQu+3GAjvvO9CzwlyLO958/wvM16iT0YjeO8XFMMPPRmdjzmiIW90jiYvZZYEj2qmZ499YRjvFLlHr4KEZm7hIU3va10Hj5RQgc+Xzs7vJPbNL3BNNw9uTgvOw6DiLxHMEo9foR3vlOMBL7Y/8y9ZJk4PayYhz1CrI88cImfvZnYGz2rttY93eZcvGL7Cj1xm8c88VxhvBP3lT1nDi49NqlRvivz4D0nLJs93S4yvlUBIb4JZpA9vYdXvACtZb6Ktte9AG6svc/dET0CDYG9u1H0PWbUVz0CJBM+kcpBPcjGrbxX0Iq9BO+DvdMkAL3CudS9p4TBu8Dlwjtmkwu+xuJXvvSa/L2mYRi9qY24PFdS/bsXxPg99ppAPTD1vjyiYwU8VDE1PVNThb0bS0w8hId+vWRbS72vKLS9EjSFviCnBr2kEKO9xNMfPTDxXj0iwxI9UpqtvUrCdTzNpgM9uwiSPOG/3L2ramK+AAOUvPoxgj0jjYM9EJMQPl9aJb3MT4C9f8fvPT1ayz2rjLG8J9KZvZEr5TtJsGE9K7+1viUDcL7IMkq9bS8evpXltb0Ba5W88/QFvlI/Mb7ICLC91A5RPRpQfz5zBGu+5aBgPY1Kdz6tnxG9eTBzvg+WZL7M+VA9/byMPG86pb6gYuw9X/ZtvrwTQTy8mhK+awwKPraQ3z5o6UA8UW0qvpThRT3uAtC93SxxvjeUqr6g9Ti+S2nYvEEelL1cmXE7flAwvt335r09AG++0dBJPvCScT00A2w+zsaZPEZgGb7AkhU90r/dvJlTGL0lDau+Y+qdPqSKIT74jhC+FV9APmgWBj1uLUe8GBTVvl6Air5TD0Q9K6AFPjPrpb0udw++O3I3viujCDwmj908KI5pO+YiNr0Jlqo+kjqNvtiruztBCGe++YiCPI851j3EVSu+b405vAMIM767OcA9g3PXPG4aQr1HLCY9Wf6EvDvLvL1soBO+rJigvRVDjrzLvYE9w4ioPWHTwryoQxG9BO9HvlevbD3bKEM9RvkFvk7Efz1Lllc9cjHbvXHVT71STHu9gGKyPbCGdz3+EfG8ViFePb5obL7gyze8zFQqPFwVQT06NFy+Y7oFPtpgZj3inDA+j9cgPUi2W73H1xo9ddVnvdy8rz2Vs7M9lEaqvoqXhD1zuLI8GqbnvMXZ6rx1azw9DIatPcyKc7wr6wg+CoKJPJBhIj1ShQ49ISuVPeGAFT6ryA6+vXOIPc3nDD7cJbi8USSjPIlMlD3HHA0+qtUsvYYxQr15qy6+4kFlvfFalTwp/eG8atkTPsTZCr5VNjE+Kq6JPfblnLs16pa8erWivPtKMr0kbR2+iRoIOyHPVLw6vgM8qrNTvu4OtTz1vla6eAE6PfFakz0RqRk+VjWpvdqpLz11qAM9dzKNPQungb1ZAIk81i0iPHFaaj5s2+29UwUaPFKL4LwG0pI9h48YPpfxQ7wmWmE9tPXDPRiGPjxGEoI9ZqCtPN1z4rzfGxO8Orm0Pb92mT0HNyU9c0mfPYnMCr65SRU9JN7aPZQWt72n3rS9j7umPS9//T1epCq+KDycvVAXJb14JuW9tgYEPR9Y2zy5hkK9+LqQOxloLL7dSH29OUZyvtNvyD1AXBI+DIU7vnxtiLyXuJo8LjUYvkzWAz4z5JM88UEhPeXjlz2r4O292Q4jvaytnbs83j6+SbwePHkma76yI069ZnebPVJFh70CNIO9+5/TPer9W7yeELK91I2uPeqJn72JWeK9aKCTO35297vMJBA+aXs+vQ+b3b040kg8WlJQPck+Hz6WUqs6xD9mve+ftzw6P2g9KnpJOyPq2jx9hFm+ZHEBvpc2ur1VpX49fTARvRm2Pr07XYW9gwbHPU3WvD0YYy69LnwxvfdQJr0K1me9d8vtvYa6LL1KVxy+eU2NPdc+LD1ntjy+lr5JPeLSKb6rO2K+e8T2vQmGGb5ltwM+9OcPPS2WW75Lxo490Pp/vbduer5b3x29zMUOvVaoeT6QYMk8IgiXvRnHj70aErg921tqvl1CIT5U6hu+n2stviB8rDwMAZa95p2DvKengLzi0U6+qz8ovqUIp7tWOw4+bitTveLuVT0pLwQ+Oe46veXa8Dz30hq9asavPLDfm7zgghO9XKOkO22XFj5IEO09V4CvPQgTVT3ZuFc+vNIYvskv1jxyOj++lLQ6OzbhfLxVKbi9roc4PQMF9T2n7MI9U/OhPONI0L1Jtr09USwvPWu6kr0qRCS9oCPVPFcTlz2O0789y/VivpbSdD0OL8U9PyYyvlo+pb3v4i++zK1nvEqzOz2KeAa+aufaO+Pz1b0oJRg96jGevD6HOr163kY9yoEbPCXGAb0EnuS8oyZHvY7MIL4tElO65G4ovgaasr0Cfak9fPm4vS/izTymOOs9Qt8SvTuesT3RHcS9ofoQvGEqhL38KlS99VDAPVr6sT3kMYc8YSTIvdT5zrydnZQ94J8wPXKcv715BQY9TCTMPAo5FDlQyoK9B4MmvXhTYb5aMiS9JS8PvR8nnz066x89FnH8vO2mU7zCPsM9XS/uPFVUGLudkRI+A2l2vd/KTbwhmzc9AiELvDsBDr7zZMo9MMibu/zgmLzxCwQ+NRmHPVJj+D0FrB++w6oNvq104byl0v297ULovfjif75Py2E+nSoHvj7HGT1JSmi+qecLv0GnBz4Dxx89O+EMvivjEL6CVBe+P7ThviT9iT5ziBG9bMXPvcgmN7yhcC49yrewviQVHT6hKTa88nE3PZ57m74G0T49tVoFvlLfDr5qnOo9rOSJO+rUQz6NGLk9ej8DvdkQBj403ZS9d1wgvq1usr5Pyg099F0VPtCWPL2y7DM79fL/vYnDgL6ewvk9FYZxPMablL2HBPm+KpD+PZDzXr43pK+91mmmvvi2ZL0gt86+oAiTPeYTZj6tF1G+WYUivhY31r75qgw9ya81PXIbv7w4wim+AbZWPmhkB77NEog+GCOSvJNuDT6pvE29UI+IPQKFU74vpS2+0tmXPQAOuTzMfYS97SPXPP5f3bwITUq9VZgCvvyM7zwFpHI+h/j/uw1IRD3q1Sc9OVm4PTmGzr2xfty8UGBjvag3mb1LDwm9Ahg2PbPtR75wBuK7Zbu2vG2Jez6SBCS9ivi7Prz8C77w9Tq97qnMPaJARz0SyYK9EOlevpEXAz6E4zW+SkAovtahQz4ZjDg9qSIhvdgZwr420ae9p4k8PtptGT663Aq++kSUPU/+wzy0FIo9v7nHvYZLND5UBMi9PN/9Pd+xLz5mFjS+tKccvhlER72z/889eyaBPb61ibygXDW+9gcWvTEiU73OwqC9jJw9PbQNMb0w+bU9LkZqPVLSyL3FtAQ+7QiYvZ9XBL1UAaO98ZWHPZdQ4Dz8zCk9Zj1wvuPRj72zs2E93ZWSvcEAPL2hVv88HYOGPQykAD4tuZc9F0GtvIOJsb0M50U9MFafvWeY5b2ngOC9JcFgPd7/FL4pNLi9/e+hubCQBb4lNae9P7eDvWVcxj3TobW97URKvcD26Dzz9N+9hzi3PV5Dqrph5sa8AvOBu5o1lj2VQCA9xMvDPWr1jr0sLo68dKvTPIiZ5T2RhPK9YJqlPcQQKL6Cuvk8zq9KPIwJTD2lYME9yf0DPuE2grxXAOM9c9gmvh59FLx9dUm+KIkEPpFChz7UUn09A9XCPbXj4r0FAAM+BfiYPoorfTz0aNK7KG77Pc3y7j0fUMo9vwyoPrIeLb0Q0hk++c1xPc9aIT0WPJs+VYKHPsotiT29aQM9RBkdvsp1RjnMX8A7+fh9O1yzaL3jOKO91sHnPFG8nD0SKie9WSHNPJhjQr3LHXO9bESxPBS6XT4XCfm8QfwwvvAHxr3smTE87jHDPV7rRj0iUVi+ahAYPkECKD5Z9D4+QjhCvdl+Qj4yg+y94ByrPZLXYL0UCZw+qqEivtoKBr34uBa+RFiUvrkvNL7iHMu9mvCkPfte6jvJTc09wL3SPcdGCL4otBg8lw+7vJNuM7zuJAs+prrgPd5f8z1jwx89ybqePdrRA76vLoW96jrWvWrXxrzNVQm+X2YEPiUIET3NUzS+R6oTPfoCsT333uk8RxazPTXDTT5t2c09q172vFyarbw9cE876f2hPcdRiT0OyAW+Ht+eviH+YD13zLY9jy9qPfqhWb0wIY09puiWvlnhOT0rksm9sSCUPEMSgzoNPFU9JiVJu2DJnD1C2hg+CFHlvHy8SD3Cywe9SfTivefhyDvLRZS7WgUDvtujtTzqZye8xYngPCD8Yr5EWVa990juvepbBL3MHga+YfluPYyg7jzjHkA+MebcvZ8jXb3vF6K+ZfuEvZsn0zwrYfu8t7LuPfNyj727wM49m2OsPHLXTL65tnI+TVMDPuqu3L2kE2298lS/vTlTSL7NwkI+eC+KvnnQgL4NAge93JIFPQmfHT6OIAk+pbGHPZzuUL1+FV69ruEIPgXHkb2asDm9lZXrPOX10TzoN7Y71FaWvQJnEL6tEu+9Ym9IPvCM0z3U46K7u2EXPvPTxD0nclC99yKsPOoEIb5JCPa9c3sRPX/iC76FDBe9tEy4vHXC/z1vixa9ZT8bPc4bdbpD4489CghKPedQUT6Q9FG+7tMpPt2vlb4A94m9cqUiO6WD574JoZE8wIxHvN8hAr7BCjs8dsrvvQAGeDxYWPw8Dlu4vUxWojyXtxC9Uts9PtLTgr0lt8s9CrWyPfV7973NQ++92Gk7vsHShz34UwM+A78avL0nkr6fOI49zFxrPEOfl70mK1K7rmlSPcbCmD3epn89uZ33vcSThDwLHFS9/1EQvdq9pj1v98e9Z3mYvTIMpb3SE869BB1RPCH0ST1sKLc9Ku68PU3GKDzUW/E8bR+lPMmmNr3B5Vm9pOiYvbZZj71yVi69RMvRPXmudD0g7wI92vm2vUcF1Tz9BSG9zo3PPU6b2jyG4LQ9JwmhvfQV3LshGdA8EQ/gvcK+7DzHgvM6jyPBPSQlmj0lKx4+oa9NvoJ5g76VpZu9k5BKvbMJpr4PFaQ9ZgOgPNL8yb1vhI29eByDvp6shD0tXpS8OOxhvYJGur6Mitu9+FoxvhkEqj2F4Nm8rGVCvnsso70GcnW9CmIkvdh3jDti8DE74EEevoc9tT6wttC8n9GIvYTx4r3Imw+9hETxvQyAnr1TlSY+ku9TPRwrm71lttk9pa66vWCexb2kSYi+M/wFuzshGT7W+pY++WqBPq6LND4nW2y98LmMPVWRwb0o1Ea+DNSPvXwCw72BLbO9SCmAvul8Ub72VTk9C0F4vSfqUL4jTR8+uPNRvdBsHD5FDzO+F5amPTMsVb6g3kA+7bMQPrrhjL3Ciyq+xFi9vZTZhL3VYxa9/7gUvaT5GLwNHr49NcAmvHaaJr2R/gq+zQqivYZiKLxlNem9tcKUvUeVFL2hoN69PQdhviF/TD0zxVU96WRmvSNjrj2VDM07Isr+PYiZKz5GAP496nvHvd4jsLylTYO8mcmLPcbbwL0IdSe+4C22PXbdg7wRP3A9bvKSvVsbp7zHgsU8e4qAvV7SgT2+v428ywuhvP3Rcj1wwM88gdY0vR3AKj7uXYG9bz+IPU6X6LweMC6+uKgvvU26Fj3/E9s90tfgPRCuW70TqM68HwiuvQhMSTzMl3u95HkhvJi9vjygkKy+qNvcPX+bf73dS+q9qHCQvDNmfL3yqdw8Wd/SvXjZj7xu7tw8IqJBPqt1nbyO+S++0Y6dPZKQar5Or2A5dcAhvtBoHz25F1g92cYOvmm5O75yDoS9gMS7PDXHUb0ZJEI9BUkePbZKpT1RaRo+IQtoPZP4Ab0cOZ27ifwhvfp2jr0QGkC+Am2SvJiytL3QfhQ8E9dmvTpznjwTq1Q+y4gHPeEdN76E1pu8VS8PPiJYUz0UKlG+WnV7vokmqj3sJYi9NkkQPYHOAD7hsB491V0kvhEpHD1/t2A9wj0DPV0ulz2Oz5o8r2nnPTN0zr2p9Gg8Ck9QPGv0+7uf3cc9PxoBvIDeYT6xIfK8RA0ovTGAS773guy9hTrIPT5SHb2rhs68UjV+PSoR4D2v3j89Vi2DvVWhp7012hS+bcytvQAkxb2lHEQ9qjQaPV9YvL3MUiK+nO2xPYt6lbx163U9ZImWPQKZCj5rhNo9+j8WPo+tnr0XOqy9WpWfvVLUnz1nhFY8JtLtvZls8L3+4cs8b+qFvNUdmDxlUnm7xLIivAAhlr0woa+8MmOVvPgrAz3+xQm9fCG1vVEFWDw1jZE8xl07veQDizoYtl49nlwVvVoySrwcErU93Q6DPdDIoz2f8fG6nz8vu5mMvbwDqom9Ex68PCu8H77iFnQ84dekPK4+Dr8z8bE9tsyRvoI0TT07+j+9k2TMPYAAkL4PKXw9yP4GvQ/hmLzUfNu8vmu9vYuwbrz9MXs+fKzCvnQHmDwTYiC8VLrpPdDIMT25cBk+qOUevTYPg70Ayek95OYsPVxuOD3Xe0G+coQ+PXUNwT1/hem9U0LtvH5U9j0UOgW+KdihvKV/N74cTj09vsUwvZLakj3N+lg+enuMPWTtXT65ARU+HqQfPSyJ+TybZpU+Nh/FvRg3wr4J1j6+8NAGu+VDtD2NcqO8m56CvdPJnD6CQTu9EtSDOuabHr25Yo09aDv6PeV8TT5jkng+TLfQPWPpHz6Bno6926+4PA8MDL1HRwG+sj8WPmGS6D2EOsI9eOs8vv78sb31E4u91QGkvVWytD39BI+9b8EdPjOjYL3YcKE9zhTKPJeUI74Kp5U8vDecvTNrHL34eME8LgiHPN2eI74zylM9sgIHPcT/pbrqH9k9oeMjPZtWCDvyBKI9MkRrPODZrL09xu+75Y0IPhobJz1/OIK+5dOGuy2S1b1eD/S9WOGKvF4bKL0Z+zs9KVTcPG9yRrz0V4U9Q/YzPW6z6r3gawK+EFD8vd7zbL3Vm8Q9So3QPVf7pjrKQOM81EwQvBvt5D0TkL29P0m+PZMYIr3m+c+8aow3PVYlCbzQAu69VybIPEb5yL3wPAY9XMi5vPslUb37iKy9c0YUviw5nL3P34S+ADc+Pum3270eQLW96GcFvHvREj5uslm8teCfvWMCHr0QSdq9fC2yvgdGhL7YrVc9MxfCvQ9Nkz3xqxe+iaFhvNoobj2bOU29Kf8RPoBAWT4NpNs9E5b3vBSaKz4M6jW8/gcEvoG/Pj4rVSo+VcA6Pfv4Hr4R3jq9qJ8UPLUaj7uOMQG9STpFPj7fob3gja07qaBivWMIvD1vO/Y9Ki1gvjDjM756b9G8jUsHPUIe8L1TKlM+qRdavUAAlr4HjQc9Prw4Ptva6T3VKbw8cjwtPVfUGT7GHP29irc5vUHzML5YYtU9udxJPoAZNz6f/ry8TggLvih1d76K09e7BsJSvRmgDL0GQ9q9vFDhvf6+xzwlN7a+vfLBvMUgYj11DKM+3Zv6PU6MrD6hq969BY9TPXTEUr4uUUs+ut/pvJV1t73eGLk9VZ6YvZ+YuLxvhEq+/FeOvSzYGr5CF8O8kzWcPXyAsD5A6+68gVBzPloP9TylG4G+N+soPbU8Ar5+Zoo+vmQIPuF15r01sF0+r0uiPdQTsz3wfWE+Obw+Pkx6jL3ci6e+w/yLvqANCT4Jzkq+E2HMvtIGuz73kpa8PUegvS7JT74jwJC+1qC/PZ+LXL0fJ1Y+bl/EPt13CD7BOJg9r6R8PgxGCL6nq829ZXoNvpZxRTtiK+a8ATLoPdcOi70vW4o9oJA7PWgjSL4ll7097RGLvotzB74jI8w7GFQMv50Wir0Ns729KFkvO+JfEb6FKx489mPlvpm4pz5221e9EXBpvVMTAz3CWVq9sXQavQmzjr2ebaq97qYHvXACQbyUsBO+ykscPqOEQ74bIoe9Gzt1PcbNjr0y+Lc9Dj+NvXUTPDyTtaW86TxivVgnsr75hUi+tvKHPv9Orr2HXWq9zsqEvilqTD2hdWs9TadTvtGxhr3iETq+c9phvS+StL6kea4+oLjdvShw1j30DcG+NTDEPrg6hT2CtTk+rbNWPS9zFL2Hql4+Er2mvtu1/r15OOu8lTSEvlR4rD3Nasu9e+YhPkTfdb6RHq++RQzaPaw2jD1RrWs9oQYhPcJ4r72IWKC+vq9ZvZ+UE77vTgu9AV+5vEVPer6mBhw+pCMOPGl9/jpU1dg8CXQyPqY7nz3DoyQ9HckivVk6dj6DYn69iq4wvXb2tD2Rx6o935wMvn3+7r0gbEm+ceXYPeAHDDxpDGW+A9M0Pg6BDT1Kgru8m05HvfHTET7XOHY9ReGmvn0/aL6zJqo9tN2FPcVDHr1DEko+wk+Ovdyhrb545XG9GYZoPvoVXL1/Mlw8u1LQvSYvkz5S1X68hcm1PJPSFr4EdbQ7L7/SPbzbpz3ZRIS9zdQ/vstmjL0hIZ68dt+jPEIqZLtUmlg6WtKnvfzwlL5xJjo+LjYfvnk1g70Zwro9cbFZPkDQjrzNJ1Q9GjRFvV92XTx+jf09FVs+PLl707zNQ4C9yBtgvcK9zr3lkyw95r7KvJSq4L0oLyu/jy7MPG88wb2Qgf89zL13vgKB/T26wBU+XMopPgzR172kpaG+RUjZu0AsH77j9fw8B+mnveF1wT1CJFC+3IPnvSWVXrxRXAC+QmYwvnFMmL6AT3k96rYwvasairxWYPA9sYIJPotIEb409xm9NmWEveujRj0gXhU8nPcCPc6hfrzjpp69kkIKPd6EPb6iuZ48NxB6PUBLzrwOmKu9HIEkvh6X4b03BbQ9klYivjLrCz2Iu7g8qmP4PeiI0Ds2tUa9Q+KAvZqJ+L2PxOu9e94Ovi6ZIr3rCMk9710jPT0Ygr45COE8LbAlvdxRiDwGY3I9lz+dPZQ+yD1o5BM+fGuhPJlyz72fu+a8x5wGPht9ALz/H4y8kMhtvXMv/T0K8by9AXICPDiuBD0Yi7q9uUmCvLACwLzKTfk819cBvvelujxg/T+9FrFsPBtiFrvfxUi8zrf+u23ORj1i5ke+SzSUOwIuE7wcaNC9HcxNPXA8m72r9F68meh5vXQPmD3NgL69bYbqvUwB8rw/a6I9Em48vl1TiDyJRCa+tpQ8vkIws73NMKy+HeICPjJPt70SqCe8Lh8HPVmftz3ntqq6A13WvQYVlr1953O9brWAvlOts760j4k90ZNfvYAKRTxj1sW8fngVvt5Xij0hs529Ha2BPjo/cD7FDmE9pHoDvk8hyj3doq89j8DOvS3jRj67jng+hSnoPdGAjb3JS/+9vTf4PeDABz6BdV6+HjpbPhS6zr2gYhS9DZsRvqWrEj0u+L49jLhxveNwn72sLA485aVRvKXJMTtjOLc9Pe/4u896pL44LF+8UxdfPnVvAz6e8bU9k27nPedTNz6vuk67iPMevd5uDL5T+Lo9TpPZPTFPIL4vp+49VfXKPvOXPr4B0Ue+p3KOPcXHjr5Hqq2+YSG3PZZbsL2PQDq9gUhCvAhz7L7N67M+2hYlPigqEj2qnce+cyO1PHDlAr76MOE9yyZTvhCopb5WzWk84zHsPFafiz3xZ5y9rXIiPl+UJD1pSs89ZCVUvnA2Fr7ElEa+8ftXPSM0qb0BZXG8/3hnPtLIwbxeUwk+dALPPeibYTwDNwG9I7ffvXrdbT0Ywvk9zBZkPryn8z3RQDG+KMIaveDCoz3JX1O+w0tPvn2xRz4N0N6934UMveY2pb7p9828TFyqPWkgqL2v0ZO+yH2cPkcs3r07Ag09dCkCPheJg7wephK+OzZrPTk+JTwH9Bm+NuNXvSkc+r0vuTo9bZm3vXRCET3M8VY9g3SUvDpe9D0VNrC9ZAhIvVDPZb6bbjq+SsMevvBQYD2v8H29mG6nvVVEW736hQ+9oDarPaVvw7yT0Ks9nzZGPswy5z3zc4M94RAQPccJSz2L0Mu8SbO1PTH66z2uEUy9Kd8kvrTUd76IPSm7hXPXPJEP0r3KXH89RhLePKK1gb37FhK+klUdvXIQFj3Wl0G+G/8LvqAUOb1WDOY9VKiyvGa/Cj7u5W69wlaEvtAOtLygJvg9sBPuPIkIyzzP2dA94EeVOwA7J757IIC8cJEQvl9orTw8qg0+EGh7vGNINz0gg0k87ptJPUlzPr1M7Gs8dYgCvUvwTT3iXHE9/ygjvUK2Uz0UuWI7ej5JPSzbPb2VSxC+gKQtO35RhL36IkU9D3jjPEO++jw5ur69MEgbPL3EVj1kDpQ9H0rkvKNy7Tz9s/S8UuEWvFyDRr2MGwY94j68vS/0jD1QHVm8ArNzvj8QS70T/i09fD+3vbf1krwXxAw9KwOrvXnyPD2fPhi9VVsDvI2DfbwQweK98eoUPdNrdL0bRL+8vaQPPbwE8rwNbIM8KZHAPJXfDL2vxrg9l70Avs7O5bw4Gpy9esH4PS9ySL20fiQ9iUnCvYGxUL3HPYO97xYcvb+b2TyB0Ew+bEoNPV1vHb35vLG9EnmYvKqWwb2c6xe930UpPnjhPzspdxo+yychPXwQOz0qT4Q9b0u9vTqlsrphQva9KagjvZN4vj2YjJE9EDjAvUwhaj1gGzg8hXGlvCTf6DyDiRA+br+yuxKrEj6IKgE8268YPX/chrxus9k89vhyvelbsb75QQ69LzNwvcLO5b0JOcq8FweWPZ7/9D1MVws8cyzIPKfVUL2bO269GAIyPMR6Ob4QGAS+93TVPVBD1j0+eRE7doK5PR9oMz0S0RI5mo0PPWyyv717XmY98t5fPVMgnzwT3kG9VFoSvq3RUr2k4rI8wVxFvTZtb7yNpzM+85JWPOvYDLwH25S9+NZLvliAKj1MUL88+5lEvHhUnD3DQa68EC7tPU8MFD1IUME8PGPnPKU90zz7UC48jEEfvkcRR71O5R49EYPkPExncb4+RhE7eVdHve+IoLzISXe9AhgjPQD2pD3N3uo9PBoOvdtYjD3k3xq+er6XvbcZob19O708yvgaPbGqP7vSAQe9ba10vQT6uT0iuww9diHyPEtbnD04ePy8uwyCOzaa9Ty02h47Q8gBvUHvmD2qKYw91jEZPVnCRb25+W09bPE4PCB/rj2aRvi84foNPX36trzOqRQ+1FzPvZdBmj1GZ2i9ac+LvY3RR71XTjE7uP0XvmxJLz5rZ408Ce1NPRKtXL6bjUm9GKo3vadjvL3S8bm8Ui8dPhDm7z0XBbs8fav6PXHE872rYuG9a1KavPz4or30So09DPQPPscJ4723loi+vim+vaPkrrxVdj49ABA6vRGSSD78oQg+uskEPiNE2z2tBcM9OIL6PcqyBLwBviY93u1hvinuKr3NUxU9phEwvf30JT1FRGu+7fJTvqk97rzaGCW95Z2mPIgOvr3aM7c5Y89OPJD/qj2CZsk9sVtbPEzl0D0XwLY89XUJvi9k+Lzti8q91mnHPTJemjyYOsc9nHB/vRoTf7wHL0K9XlqJvqxBJL4yBUq9CAvzPfdC7b64oLS9hm4gvkUCGL41SAQ+bRohvYaCg742wyC9GXduvo1Iq7xpO7e8gcMeu1Egqz2C7Mk9gQ4dvg2eAz6DLwY+Ggm/PVh1drzLLAG+i8QQPcAONr6+uh0+FYuYvf91/z1uvcG+uDnqO3uL7z2AHjm+cnjavSVtvD3vfXw8Ai/dPVV4FzzK4ck7S4+SvBqr8D1Booc+VkvDvIsKAz4zWjM+EbqUvYljGz2oIdc+02HcvVjYkr7LApa+y22OPVTapjzxnVq+MgzLvfblMz6zirU9UWTwveqKAz2I6kE8eyRaPkTcr7z0UpM+TJkDPmbRUD4+MLK9Tk22PRkS0r1/+JG+xmHLPXpWYb0pPx2+prOLvTT5x7m/9Pg8zu6jvWZULL78dNu7R90TPvvoPD1eO9C6+m2sO39Po73KE3O94q3ivJv0hbzEOxa7Z93avSWckL2HGoi8vm/EPDrVor16aKw9HDxFPfzskD0aNBI+u7/aPEj6oTspyrQ9q97aPUgwxz2Z5iO+hmoFvoZIFb0LoxK9mXvXPW+IWL17oy09JdSWPC5xab3h4509ZlLpPFNvEL00ugm+8E3AvbxZRzuI2Yk8GX4mPHAdBD7qPtg795Udvl8R9TvTwB4+TBeyO5unxT3NdSK+sIcLPs6ZKTyRuIA9ZWPnvaBiAbtRob09JCSzvJr4BT0v0BO8CkAiPtQEJb6E8Sm9J6/DvXtI9D3w8V4+tTnpPaLpVz1joZ69krePPTy+6D2ugpi9eCDrPDjlvbwFKnW8d+nAPXhrdj1FWLu9RVrkPKizyD3z65y9XsWBPQeHQj7nVms9Q8tsPRdvHb66bT09WQwGPgPROzw74ay9JjwsvgjbpT1xWyg9P98IvocJzTzanNk7gdEnvvcLqboyW608MZA5ufgUDb6+RkO7+Jqyu+ZtKT1llvU94xfEvPwB/TybjWg9wbn+PCf4lD2Ow0Y9q4YDviH6kj1XE5q9YxO4PUzyoL3IRmK802CEu17N2b3QrFu9ug2uvVPqPDwNhVk+R1YRvaG9Nr140yq+F3EFvUr+uDy/GhG9z/OnPQDM5L26EjM99Ir+vL0vOb1jvL683s9svbslDr6g1ie+a4BSPaqaoDxyiJG9l80XvgZzab2JunE9n8TnvIZRtbs8OMc9CvB6Pb+VBzw56c29bEflvTL1gL2N1bu80hoDvpGGGL4PCfG9TK2EPWFCqryve729EvB8Pdo4nr06CSw9YNQAvlLUxrxdGgi+1U+GPLDBer3wtum7oE+mPQPujT3a3fQ8SOU2PAysm70L0W+9k2XZPB6PmrwdMJo95IjQvNHVzbo63Be+ccDCPLlHFbzUDsy9xvXgvQmzZb2qnzW+MNYOPhM3lr2LsXc9YnY8vbXRZTwvkgy6RievPYClUT6s0IC8w7obvAUJZD1ZxpC7DD8SPqiq970nNjo9qcFAPLcXAT0WGMu9SZQNPmwOf73dqy49V4iXvJgZor0sRNw9NNEiPKjBTr337MQ96IqUvfjJtrrJWzq7IqWVvezp67wv1Im+1vZQPauyvLwFsha9tRHMPBSZsD3KdAc+CIR8PSsQqjwgkEC9C3psvdBCrL05uI++Q6p9PXL1LDwbXIM9LE+KvHL1nTyz85M+nvhtvYjA3DyZO529k/OQPU+LBT44njE+4GolPtf0ub3BzX09Mmi8vZwagD0mOKm9QM/rvGGS7zxlwoQ9xNDDPcwqXL4kbk+7Nlx3PRYM373VcTc8jyqfvURfm7wiUAG9B8mxPHiM972qphK+M8rWvDdsJb74DwS9jbKePaSpyDwX6Nm9rE64PVX1L72B9pi9EadgPFct6D0HWqm8SRvAPWfhKb0gqRa82MQ1PC0hAz5YLKe7BJVhvpEqOr1S/iI69R+Yvff627wGpWk862QNvnFEhD0s9gy9JXeCPRcpiTzuCpC9rpSwvOzdz73or3E9gVUfPcK1FD4QUkq9gEilu+BDSz2egAI+HqDRvfeFjjygozA9ND89vTUYmTx+UBK9rmyzvQGTFz3fhkg86+p0Payb6Ls6hea8TQkMPmEjt77GvFE9chriPGDwfb1CA7W+S232vIbAI70PUuO+MrRCvnj7pTzHnOK8ohgjPn2WEz4v94++O2XevcqS1b4cNqI9n9uWPfp8C7+Kfga+4flnvcC/wj3WrAG9WXqPvew0L77zTCs9Q45wvXj7lz0UGJS+HeonPAtul70ws9C9lpqKPZd2jL1SL1S+rJSaPTfbdbyD5pq9uqXXvUv2Lz5bklQ+HX1jPt56Oz4+hMU9hIqYvvr6IzyjacG+bwnwvuSMRb0ijUC+Aj6/vrYREr54qoW+Z4m9vRRler2HL1u+1HWMPg6GpT1sEOk9iJtZvo/bn7333bK+SgruvUn7Ur2Yfsq9D0EvPgRQj725jIu9vvbcvRr6xr6sU0k9CCKBvaqdEjyPabi9goamven7ar6bpsE9ZhrWvXjHrL3UcA69CfF3vtF4tj0aa/u94MuqPYTlx7y4Bcs8kGQsvuAbvz3r+T09EB2OPeluHb0Rteg9iUvzOzaSnLxooai9XzWfvHtt7b14A0Q+D4CDPaohyL1w6IQ+bEFpO68Elr1laey9bcuNPsjjqr2IKIi+VN51vl8T6z1t898987fIvcSejT0rvSS97B5Nvqckib5ci3A+R6z+vbyd4Dx2XiK+dayHPiph4T0FZCI+lUnQvZkWG705f08+r9kxvP6CMT48c0Q+K+zQPRVWe73AqKG9JOMtu2WFOjzGCpe9IRwTveWVZz0Mwwo+P+QJPKn+yb1TTPm9yVXqvAsQ/bxGaGs9uDw0PAolpD09Qq08TKcZPsaSgT0AQQy9KrcFPV19hL28PpE9y3gTPnpkNb7AE+q9PDjEPcsSqLy7p669LX5uvh6cnT1CUsk9eUbuvYpiB70FcOW9y87avMWtAz6mn8u9EBbXPVzyhz2PlyW+PjRuPrD3fz1aJpE9aMRyPYo1gz38GFU8IYesPWesJTzCusU8oCoZvrZsFz5WCZ+8zrU5PADO273hDAC+emcsvokdtzwLdUS+aaDevTXoWD0VPBq+jyABvbrV6j1uuxy85v20PXwycbz/BQk+jIPKPeSpNL62r048Tkt8PMwG+jnAVTw+ItfmvWPmqjw6v889asD/O+kRBrsODyw+dvSsPgRZdT4Re6e9jgmqPID/nbxmZDC+XIQFPiBH3zvnDOm9UmORvQb/Xz12t8+6hb0RPbnAqr2yfQA+uYieve6Woz2K73O8gAcBvowPPD4/PQ8+iiKpPXnh2z1EW1c+r1O1vSJ0BD6EZqA9JeqDvmfquL6U6da9msRYPaLt1D0aVsQ91jQlPttzf72wxcI9KSYHviNgGT7i5am9oNk7vgoZRL4kv2k8wI6Nvf5YZ7vb+aA9ZDhivfJdaj2InQI+WvYdPeLmNjvF2NO9JKbCPXZ2JD2aoEC9AImpvRTryrtwqim9eJnYvYr3ar5sxxq9MOI4vn4uqb3M+Ym9KXPtvRinUT4K/1g8bMVvvYCfKD2b+wg9Gxj5vY+LgD1D5f48jhhCvU335bzv7hI8AIMXN0aVNb7dbRy+jrAhPgwXPz2FQ7A9XXShvSnkzb0egd09++i5PRtSkb27kgg+Pp/IvI1rzL0ZjBg+8hQYPom9C77Y8Re9iTO1vXSEsb3xUam8M3ZUOg8CHTxydwM+yyybO9E0O74NHkE8+ncwvuWtBb7MtnA5S18pPYqZrr4c05k7DpqFPPP63T5gKco9ie/lPUQgbb4lHiS+Z6npPeqpBD6JP5Y8E7hUPqdYMj2PBQQ9AJ8WvvRC1jy4vSy++kZgvmqjwDxORz69J3jnPACxArxSKWW+UVSwPcNEFT6/v/27TFqWPUdoRz5NUxs+SBGfPf7Ncr1Movq93KWgPGDiwrtrVBI9tQmSvjemnb34S5K7tjmLvo0R+ztR7Cw+3T84vh7bUr2+VqW9lsrGvf6clL1HvI+903XlPaC4xr3ZCC0+xZ5ZvZxRK7wGf3S9MpjNPeJJEj5wBz0+1XaEvXt5bD7gEhk9ochJvWKz6r1inam9hU7UvVZmIz0HQk2+4BkxPd1FYD1ymQy8NZ4wOwJODz59SH6+jwstvUMkQL0kmr+85F8QPlzeTL2cfWi7DaIzPRCXuDwCvKA8m/0Xvhpg0r0UDGA9o2ozPEZ6qT0hmDe9gJ4cvrivtD39K349s0OavUPd5D3dzbU9cNmIvDHlrT2zftG9qDV5vBUFy703u789TJWkuph3gL5Gx8C8Pv4OPSIGnr1js/88zqq2PECwAr7nQF+8Al3cPDxMrD3+gLq9je26vTikFb0YUt8878aNvG+7zT0nPdM9CrNSvR76E7y31a6974/+OkVONr5kwqa9uSSpPSBOZ735mz++oj9IvZ7gDL7JGhG9xqCyvTKLdz2FOjm+7jgsvH/UCj4wO5y+5fczPqP2rL0LLe68iWGRvkGXkjwBikq+W/L5vQUAAbxDJaG+3JfWvOLNkL4DvxG+7ef+voexeL5u3tu+m7ZLveBODj4p+se9A8LdvZbhhT2/tiw8zGr9vUNJCzyvYRA9N4YqPrVHS769Kb28ATucvrtKNr7robi+nVxuvoImEz2bqIm9SQ5evjzzr70EoT4+7YYFvloEyr1dzxU+d3DQPUuyk73qN+s9blC6PV73Jb2346A9FLr5vaGoir4VBVM+S3kuvuDSc72yu049A7U/vdmUhb0Z0VM+GibtvAx+ubxHni89LKcVPmeb9r4rvja+uVv6PEgPS708i5Q8rPEwPVcqlL7jn4C9z8eevCMXXT0sPZ29jW0SvmxrgTzSbHa8FPCAvSudDb2zzDq+vEGNPKfuhL0oBW48gMaAPE49VbttGuG9sa/lPHGTsz2Ck4E9O2dOPcYdmb2/R8A8+k9JOyn7irwzLkY9eIwsvOQjPr1S6UE9Pp0YvliCEjyJnXW7FxcSvSUmsjw71k2+UqOAvVueoD2YqwS+TQ9bPfXmwD2wZaG9CCJpPWhVzD1UF4U9/9gUPfAcHb0q+BM8smUDvgpCs716AqA8aHhXvo8Ngz2KRw69y8GlvU1eVb4AnMu9i52zvZYVZz2p1g+9jp0xPc/qpjwqwdm8mpKZPY4SP70cKJS+9U0sPc6lFL2I2QY9G5FXvt82Zr2UpBc9gj7dPUpiu72jY4Y8W/PUvfq7hLydPrK6IDI+PUmOrT3qxJG9JlFQvHuCXb2rXnm9QUU9Pey31T2px/m9kn/Buy+3LD5u4sQ7jkw7vMLAfT0mVcq98IjDOp+gT77RSB29ZwTBvKklob0bmqU9SXKavafQhzxToCm9iF9xvPKpRz4QkA8+7igQPXqgDDzBsgg9hog2PeMj2D3p5LA73DgRPdMHNL45ftO9kYS3vfuz8jxQ6m267/bmPVwK/LzCL7w9c8jsvdZqhL1/5jq9P733PUkVsj3x8FU9wVkSvVkbzz0cMT49NYp8vtBFgj38VSi+RCkAPcpuPz0uRKa94Nvmu3x2pr2UVL49chaGO8Jv2r0WIW29iexxPUeMzb1tDeA9ahUWvUOTwL1t7Y49liHCPWE+9zlSBgw9FvjPPOVS3T2y6f09yC6Gvdmahb039588x9EsPIZlAr4F5Jq+OwsOPV053T1j9JW9K5gAO82Zzb1gyWS+uFeFu9jT471kvwA+mGxtu/SakL2ePtM9/w6YPYKvID1mNk89iMHrPTrqJzyiZCa9RscQPuCRzT1snzW+81K2vPQ90jtyF6m9WxqPvSfgDL5wFZw7IzkePEy2y72PKDk9cB9bPbVrJD0/BDY7iahIvZgMX75yXJI9FiEDvlnU7bxGY9G+tjqFvjQKGz5ywSg9025QvGyjmj7hhLg955GbPdELvT0ioZI+X31hPR4U3T19EFa9AWJAvYFomD3Zpda7gQg+PrRgCr8mSYA+AyorPl5cN74urN082IFYPuKC4736oj0+rIjkO75+gL1fuhG+FlfEvcCpRD2eNmG9ox6QPUb4PT02tb67NEs5PtYHbj63q+48mPjRPUKMUb5BbsS9sn7hu6GFyj2q4nQ+cd/sPWz1I74T8Za98BTqvCkINj5mMDw+opXTvfNcuT2EcPS9cZ7avWJV2D30npI+Jc2EvC4vCrymSZ69JU8xvG9LxT3UYxu+5JNHPZoOL72wPpe81PUrvky2H72pPNu82VCYPRoCaDzAC3Y8BMxCvqBMGT2wpOk8mPtOPfy1NzzntOo75jH8PF4Rhj3AYQ0+jDbzvKc9mz2VjTm9mXfgPbH3Sz2QR7O97o3xvdBdLjzKOBE9q9CaPS4ICr6s7no9jrkBvTUpgL0H5qQ9RCCYvVP+h71pa4Y8KSo5u28lqT1e/3e8DzHavU8N5z1vbnM90Zg9vc2lzz3jrw69UuGvvAGXFL1d8Z49lCr+Ozf4Cr58ABg+k7RLvUPWub0Pk/6940Qdvo53o70bRJs9BfzuvOR0jb1xfeE9SSRBO3REUb5fJuQ9YDvuvBi43r0Ydd09Oa89vWWg9D098cM9anaCPD8Qkb3E3Vq9n1UyPR/7ir7LwL++iwNNvlLdzb0q1t89WuAEPX9uh7xF5VA9wu0svg/JOj2HtBW7z72OPsRUjL5+MHC+jQ5UPiGkojxVVFa+0wsZPOGmI7wQrCq+z825vc+IvzyFFaG+rdDFPAKjhL7mpDi+5noGvl33Kb1Xhqq9ylLXvSxWnT2GMVW+7td5Pqs0GD5rNkE9hTd1vR4xDzukVb88x/QavvLubj3ADzI99SVjvZ8/pzqzqTs+etEavroTe7wkCaO9ihDCvQ4bED4A+14+Jy03PrNX0D1ttCK9wsqvvmu/hT09126+YdytvDaHyr2TE5s9EjwSv4j/or1Jcn8+ivoxPucEjz4rrVU+tnWpPti3Jr6TRms97y6Bvg4csD0JIUg9w6Xove0w/T2+qHi9iZCBPR3V7L1nIa69bvZmPfm/E70Ud6Y+zlbzPaeLib6sx8U+ySdYvqL7cb4ITYm9qktLvhyUJz4Qpvs9Xs1gvdrPsLxO8Ms+WedNPTtZCT4M3BY+3H1oPfvJyr4pwaW+CJl8PiOMez2kiC2+GieOPpszHbsD/5E9vHbCvfYzajwwPqI+X/OWPHZS/T16Wgc+ofwsPOIYFj4YX9Q8kW6VvW+Ukz3eJXq+OahPvmYCgb5kqCI+KDa+vp14W73163+9WoBFvhbEiL02pB6+3WVxvmqciD1YW9C9G8CfPTCXA72AyLE9DX6zvFiMqzs/+Ia+Kuy2va0Lkb4ae3K+cigxvGP59LzgthC+3tb2vUlhZ77d/Ji9HmK1PULcXL7nJnA8fi2PvFZf6D14MIC+yNwxvXcrh74g5d+9c0xyPM9PBr5z33O+ZJimPEP2BT2knP49bYcWvXgktzzjL969tV/SvUSjkT2SHQe+PTxwvqzEjr65wwO+HHXXvr1Wmz2hZKC+4YGAvUPsoL42fy0+KsoBPv0fAj4a0G6+1I2qPWKPgT7BE6y8ntmnvnUprL4TeXW+sRd/PV/Szr2GONY9ktWZvTX4ZT2cCU472+6hvYjnqzppOsE8yUHCO4AQCz1ftqc8onL4vShXAj1eG0g9MWaHvbYqOr7oNoG9No+LvqcsvDzwYMg9cWMqPY0FZb6j0ie+Ba2SPlS0Gj7o1vG8N0Y5vlwMCLwdp7E9+4WMvrEYdL47dn++mL5kPY9xab4OnWO+X6hQvj1DGzwAHdo5VsF/PUrZmj6iF2e+Obs6PraUVzxj1Co+PR50Pbsby7wNRrW+ekS9vowRXbpjFg280xegviRarLzokHG9ZCjJvSNHMz3fLAe9UZ1hvrgFXT7nZjI+pxq3PdL2zD7/nzc9+SrPPf/Ye73g/e89C7KBPe0PVT6euSY9CVQDvjWj/L3hfdW9eIntPeyYXL1W9oM9ruq5PUsDzj0BFBI81DdoPQYehz7Sgpy9Fk/9PblFDL4knFa9oydBPaM1Ej5haio87TrxPCPvs75gQxQ+jbsAPtbY772dd6u8YBELPmk1yj04iJ09yLYpvZ2jhL5vdZU+1LHQvVt5KTzsLKO98SCBuxU+sD1X0Ky+qEWnPIhNdb763/q9NHGpvq9swL0HjpY9gtdtPnfGHj09IPC9pg1UPYrdOT67eQA9NV/Hvq5Bbb2MB9E98R0JvlQQr73jDPW9JrBFvoUL/jxw0m09CZi+O6FofbwQal2+2QmBPf6UCz3+j7W5RDuru6MBB77sGIU88iEuvaYktj3lPsG95gSQvo6dNr2cZQm9mbsLvNBeKLztmDA9b2QdPeoUwz3hW6+9mhIjvZjBMz2WSAC+2YYJPvP4ej3nLh2+JYmzuwSmRr3Po4g8BuK3vUu3Xr60ZPu8XQicPJ3anr0cDQq+sjrAvdsBIb5VWi095AbOvFkMhT3mobe8Df0Zvhs7MD7nYo49GUhxPbj9Ezxqyam9ISabPJcs1b0GZ3I9PtZwPUd5IL7aODK9+lTCvXV0jb0yOhG+emURvuBCDr77mbw9Y46rvV+K47zeG8U94GwAvmNfQr7/crs8MQGaveN6M76l/UQ+G95jPbEWej58hyA+YvOOvbLI5jwsxno9UMSKPcEvGr43uKG+45d4vkeaS73YZ0s9E6oQPg4Qo723ljI9yv1JvmQc3LuuWIK8iRtEPqS0hb6eiqe+4yt4PiChGj6CqCe+68LAPJ4hh702RDk8+0sdvqGrh73tj9C+W/wvPjV6p77sfJK9MYfiveTcDj6Bheu9GfEHvrFZGT7dXk+9jiJdPqx+Cj2hRZg9zF2IPQvr/70GNMS9CWZNvfHItzo3gJC9T9MvvpqDlr2UrOM9dtoJvZ/m9j1SsE29TEwJvvv+WD5nrYU+Rj2YvgQtUD0jTl4+Not5vnsshr1149K91IpkvkDeOb2uJNu9QAcwvry7Fj6oypo+RH3LvimTxjtpBrO77xgGPmi+l72UoC4+KP9dvXsrBb4Zqfm8C0mPveOjIj1ULUI9ZxQyPWcvGL4SzrY9uYHFPTuxZL3n0xu+mvb8PJACCL4HYaI8mzZjvmGVVr6Ddig+lbWSvvN3Zz6Hjgm+7/JFPYYAkD6QiYK9Q7TdPX/mBz7/Lka+ifppPrerjTzze/u9Y1e1PUnTJD44voA9ZOBHPrXBxL0psig9umVpvsiyETtpMXI+OHQMPdcSDD6NMoY+FL2BvI70Jj3XdqG9vFstOzWVszyL/wC9/beiO8b0qbkkW/w7xRg6vkBYuz1/l5e96UOwu5H+CT4r16y9ZNlSPMKls7w158W7fvfEvce5c74PtnU91RCFvT95HbygP3y9TQomvvhLbj06wsC9iYVLPfGt8T0gd2g+V8EEvqT3cb3wXIw9RfVNPcbeBr58Vak8f/C4PDjtSb6xTxW9X0ugvBMbYL7izck8Dbe0vQbmV751XOC9/BNaPUD7mruHAa48RH/BPdSu2L0fkM89flUEPhq1Kj1cIgs9taIGvkda1L0VIsC9DJRhupCpAb0f4QW+1vpJvdtSWbx2wQW+1nqAPbxxLr04v+u91YUVPUPyOT55GUa8Z0S1vXRZAD5hDg0+Mp2VvX7EJ700KqO94FZQN//KGb7xfmO84MxAPNe8tbw6N2M9KajTPBtOHr5F6GC8h8VnPWIBIjyttLY9K+Mmvb7Dkj0RizU+ydfuPTHSZb0c7uy8HJBsvQ09XT6AIRE++GoCvjPTiryKR349OKD3PeFdPD2vDoG+/fd3PAGqizvRE7O9kJKlPIDCtbwp6729MKCNPRlhrb3Ce0E9o8FJPD73EL7knxM++MNXvQ7yIr3Ma2s9l3WhPee8Aj0Imwi9UbvTPC9kEjzOlMm9OpYVPdVlwzvFAIk8Ol6Lve9mlb23LPi8tCIaPWRr97zxuqI9bwppPWAo7j3AGSQ+HpjSPW9Ahb0ubaa92L/2vW+egD10w2S+mIlBPbPz/z3MPCA+eZCYPSPvRT1fShy+waMJvQMHlD383YQ9LUXUPSmtj70OK5e9+KScPQn+TT6Hyys80Yo3PMZaHr0uRlQ+zqnqPRZxJ770c1e8HLltPbQ+NTwFiRI+7jVbvuAlgD3/MN09M9QLvv/umb2Xf9q9ZzImPMv16T3MeQG8xY/4OyFmhD38o9m9zfstPuaykrtyxKg9dtjUPR0PczsXCr+8doGyPd5loby2g+Y9RJJWvcpxYj752DU+IH6pvMH3d71UNrS99P1dPEMATT1QWXq9sA2gPZqW6Tw+yQU+TDhuPYDMBT5gvQO+JmPQu8hrHL1a4m89t6GHPDJPgL2LKN89MTs1PTE2Nju8kty9EuIxvtaqDL70Kvg8QWFZvQ3BfLpF0im8+YKhvZ/5bzq5/Lo9tx4PPXKLE70wG1E9s/oBPqD1DD5GVCG+ShzwvX7A6rwCdUY9g9ubveufor4GP489lrWgPKMmRLtPXAy+EhwLvJqj+73mSrQ9EUzMvWXtRr13d1y9xejlvXm+6D1idL+9JVGJPTKH0DwyQbA9FvpEvdG7t7zrdYk9J+ksPvNMG76W9bO8eR6aO7E/nz0vAQO+01dGvM4xcL3qfLY9lHhJvW8eAj3jQV88j1PQvhOVTL7e8dc9YkmhvjC6XrxRtge+ZcPJPT31RrxshKY9ZhZDvgHt3r1oRcE8sTqBPDmaIb42CYO9fpf/vO+5VT3+ewq+nNrBvU9tCrzbnSa+y/iEvZZufj2cP+Q9+UYfviwya72zJLe9HrOlPXKnsj160dk9/9tdvX01mj3L5ji+K6soPoJOBr69ika9ZOH0vQdTXL5xiTc+/AgNPeMiVzwbX1Y9/AH9POnHTz7wL9q9B10OPv35uLwEA8G9NpNEvjRmd72YpQC9mw3vvbChVL1AtDa+QG8JvIZeMb5g/oO9tWTFvbIn8L3XxUq+ApzJPGkT/rxuH788uJUJPVXp5r1wkX2+kGuCvmeswb0QZwq+iw4KvmM28DxRT16+WLJGvtUQMDxKBWu9WEcGPVxNZj2EMLA+rFYJPqy00j1pU1I+67ugu59dOL3Jj1e++90zvgZg9zy1jW46wlCBPh63ub7T6Dw9CX5LPGms1rzX8rU9kOoePaCsMb6A7C0+pP4OPolxcL54y1C++87DvR8Ejr3YXok3pb8YvjFBLb1GW7s8uCRnPuEYQz4+P9g9JY1XvltqqL6rryC+3aYDPnoAwr0RglA+19xEvhpko73MCWO+RFfGPZGDybyc1xQ+H4c8vuhuJD1D9E+8Cbhqu6vICrw/xRA+D99BPX1puT2Gu8G91tYwvkHY971zx6u+YQ6LPc6GMjyx1p09nYz9vD6qh73c+tw8S8dzPfZTVz2fXgq82Io8PPSkaDymzRw9xqXxu4KDWD0vN4i9smcwvf08Bjo+c0s7y5zmuz6Riz19fxS+QidpvZjICLyTsOw9945WPN5qzT1gJYW9w0ubPTWHp72AyVq9KoSTvePBLTv8nAQ94mnyvVIbB73jHoO8TfDjvRFALj37/cs9HCpIvbUxBr7LIxg+I+50O8Mfjj0t/oU7hHVHPfJaFL6pQEu+e4amvITBdb2/kP08fYTKPL5BDb6KmQ2+zjEIvgMQYb6JXEE9PvkFPXBz7j2XiwA+LPq5vQ/QiryAI0o9+nDfvSecBj6oSPw7v2QEPrO9Lr0V16q8MHVMvU6uUT1dPEw9Oqq2PIYQSb6XEjQ96EQaPVpGobzl42W9ZniXvckECz54uQw+StZ9PRQiczzmn928/WoDvY52Iz4svdI9r8LfvbuJULyxs3Q9ykoVuz66sj1Iar29EbQ9Pq9HDrwBYuU9XcOovek7Jr3+EhQ+pzedPFKydj1Oueo9fdfCPZuJUr07o+o9XxyWvXqsQb5DbES9+7wou2SIU729hh89+fEvOzNehD0HqPm9qPPoPRJDBb6FZ4m8st3WvN7WIb5/Hoy8pBemPSkFEr4Qht69C93wPGjt5Txi+KI9HgUcPg9V0b3a8rY9deOgvf0HerwIFje+aPewvUu5qb0R1iU9vJ9bvGSWmLzZ4GW+bxl1PYcxhD0wg/W9SaWaPazs1b2cg4w7ZQ7yPe4ToT0WKoU8fc0nPJOB2r3ptjw+TdDEPUs3Or7qhwa9F5/1vLKBGDwBOFE9xapyvm8tez2jeBs9WSKQPF3khr3ikFK92VkOvm6ojD1MExS++7jOPUUTkz1ChFi+il/vPaBlKj0r5I28TYXCO8l7MT2tBlG9jRD8va8sDz6ej5C9crYbvoL3fT1WK3Q8GMaFPRomMr6T/Oq91VAJvmWKkT3WQUW+KjX6vCnqej2sDNq7ToiLPWtPUD2eFVG9AhPhuhUIH77gUbE8DAB1vhRGlz0sppk9+g6aPXZSRz1dZmg93uQOvls1ij0RG6Q9OJraPe8Glj05+5U9qm/ZvYE6sj0SpqQ9Y86cvU+9bL3F+oU8dsz7PbHdXT2E+I29mb1+vYtAQD0Cvn485QCRPTaUZr6cgla9J6nSPaXk1L0ROAO8MJFYvjIWMj1L1L09xLEPPVli3z0ecli7w1sDviBoCD6rBuo8rKU+vBcPqjwMIKY97Y+fPVg76j2jJuk8rruUPTCZazyghog9ecVbPn5WMTwJV4g9ZPnUvQC+ur0PABi+eyoJvEUICz4512A8kEe4vPLU9rs7KgU+GuuRvV3TUTzqJoM9gBpLvFoJD77NKK694J1mvZz5or2z3+Q8jpJDvZ6p8r0nqoS9/XOavft3kr2Aism9ZHIPvrMdmT2OnFa7m+9CvCfzr72Vil+9graQvUhYpD3uWmk9FcL5uwZqDb5ufK69+nGHO0mP1DyLtIO+aCGQPQRdCT58Lrk9lQrxvZLVmDxbhIc8WKSYvDzF8L0t22g99BZEvbt1Dr7yOXw9iw8FPOktnT2+2Z68dTItPbT8ZjwR0/G9BuoVvbNoPr2to0K+uzigPJ0jtr2dECQ9J5xHvvgSnr0Aj8A6LeW2PYDNIb7nbZO9+cIlvoOC/j3iPpw+xeEkvzl1nD4rGrS+SCSIve8Gnb6Hc9q89u6uvpk1R70FKfs97SLlvmSo4Lw66Aq9jPM6PdEf1r4zkIi+4akQv/+UHb5B/gs+l4Vivg0ksjzPQ1g95r2VvfYGFL4LIg29GziKPbuJuL1L4Wu+1fk/vobQ0L5O/PG7tyTEvtrXtb5Yc7g9rEdavrWLhb5gB6O9mwUBPn+Kbb5gqyW7qMTEPQR0Lj1k0eA7V+oyPgSXHb4xExw9FXKhvZ5B/b2u8w6+1GiJPvBRM76y3QC+C3aIPGbwUD2ExUk9nSU5vbP4SD5iCXE+FLcAPkogFT7xMAu/87J6vvIk77xxdoK+7XB8vlQXQL7uLGu9PIgLvsTAJDvuE1E9GvcnvjWkJ74pMB+9csDqvJdOd71MSzC+2M7JPedAFz0gzJA7Bq63PXmyhTxxAzy+3rLxvaN+Cb7d4MW9AMG9vII+aT3QYvC9eKF+vr2fNLu7+0o+Yl4zPnGG0b0tG+a91WvSPY6D5D0WGSu+Rf7Fvmi7j71wOzW9gZMHvlYFbr3um4u+Su2ovIY8uT39/SI+Ovw7PlzxiL6eDBA9pPHFu/VNaj1FA8g9X7iRPYFZP75uIre+KKbgvRbdBz7Gt4O+0sK7PbLKgr4aeqU9Py2avHqsorynEy28PfOsPVKc0z1PTII8xKjbvZfUV74P0iG+P+omvsfcKbz/Rag97QDnvUodMj7kwJi9yDc1vbVYGz1Pgp89AYmMO4v7H74P/gI+4ntGvSLntL2o3yO+psTzvKrKFruxFLe9jUgUvVn8o7y2efm9em2FPRIAfr4NIEU9D41IvcaqH70gTdy8j22qvSOSULzC3J29fDzfPW7D373YX2o9MggoPZjWqb3DgNW9OUrCPaQCgz22rRC9kgo6PfGGOL51uJ69kx4oPa9qRT2a2sQ8VN1sPc2kXL0HxxQ98IDYvS0POz3EHHa9Z4qIPWzzoj0t1wm91EWCvfbbhL2LZxe8VsOAPRcDlj2Hcwm+ALEzvXDgH7x6NIu9IhK9PZ9Tbj7TuSy+pk4RPTeokjyTkPE9gtsVPpKMuz0fsk6+UPjTvPvQLz0Rrig9U2KXPcH0mbw4UYg9fhYFPrDzX75Vd9g9sP0mPuEFPL6P2DY9metOPshxXT1OfEU9a62OPVrFrr1/fYs8eECOPbG7kj1urZe8yrzlvSnVnr6Dlk6+PZ8mviT7Rr4U5Cw+pPogPlFy8j1DwrA9X7obvcH3I75ShSS+GO19vBkoe7u/NRg861X+PD6CJz2zJ1W7I7QYvs3SmD2LYtW9hYBoPm3vqL2jvt+8+fszPGO/3bwfy9u85LVdvg/XxL1vq0y+jRhtvaVbHrwgTJA83lX7um5G37vDRdW8QESAPaC02j0Hdpm7lifwu7wicrzQee89oJ5VPL9Ifjtfdss8h8SuvUHcZT1rRMU8zLxwPRAC/D0ZsA6+I2l5vHpIgTxdaoQ9MWOzO7z24T2axY89BzngvfWC7zyJiY29FvvevB2phzwU3z0914QnPk+nE75u3Le9Tc4XvoCv5rxTJ7+9vrxBve5m9j3UZBg8lXZHPWzi6b2XZHM8Ijt7vGnzUb6gvIO92xjHPfupCL6gJSI+IL3rPXhGMj0AEBs9sIPKPYPmHT6iMho+KmvQPIFFBT16E6S8+13KvWurjL15XS09aqGBvQh4Gz2snHo92FmivstOnb5lAjq9RaeuvoloEz54kLk3GOYtvk1PGD6fTAs+tLRLvglSyj3Wlh2+XwjuPAx5Jj27trG+wygkPVrLyr07WXc8VfkBvtigTL7FoKs9LklRvY/ooL1JiFu+iDjCvJMMgL4rFly+WuSNvedMI75WLty9hAFNvpyrQb4OMrA9gu9UPVqTh74sigc+iF/FvQNUiT3cpry+aH4mvWHS3b0fuIM9ojgsPTPdy72QmXu+NhAUvjMUJb69YZ89gLlNvR4K3L45oKq+dnFoPlkeBz7PVu29kDgEuYyU9bvKeQQ8tf2Tvr3sUL4wBpe9IYl2PK72hr3hDZa++qbLvOMSor4kyC2+COtIPUCHjb1Yuoi9wiKBPdo7NL6UkQE+IdcMPacpuL0HOki9FQMTPcvppD3muCK+Rkz+vLwch71RtZA9EMKrvZ5PHj4edLM92BxKvT9zWr1oy+U8TD8Wvrtsrz1M366+pBmKvpYno71B/8k94w+sPZ9htL17Uz09G+Yyvi6np72gDVU7bMidvEN8n71Fkoq9t0TfvZN9tD0rRmo9tz7NPXhaEL2erbQ9i/k1vi81gT3255w9nmsoO852yb2WahW+ZDEcvRJQcb6Ifyc+/i8rvQU70r2+fE27C8nkPFDW2r0PxyK7cZkJPM2wBj6lpzq9isgtvl+SW76uHIk9mOxcvmsM7D28khW+xESSPh//l71PAsE9+RZcPpLgwr2d+y8+LkUePRy5Bj4oCXm9/yPcvSM4F74Mt7i+xCMZPQUvGj7WEww9sRbDvUmJjj3zG08+sSUgPRPxfrvQKZk+a/q2vZzfPj2x5iK7LvwhPN8jh74voXc9YHVKPVDkAr4qDIU+jsm8vQmDQj2znbM83PTFvV1Hpj2RoHA9yGf/PRPkWr7eUOM9Fs6QvfjZv76RE+C95t5LvrUbhLwXgSg+FAl+PuPiCT7FLv494BFSPYFD/Lw6V5A7yknMvHHmA7uxsEw+7oC8vst76j130j69+8kMPvMwkT2gyhi9zw3Qvp7QDD35Phm+d2juvUXn5L2+FYQ9YWzcvTma8j12Jv68x0yivf0UJL6WVeo9f4SsvW0Fkr5h7lo9KxAivRpIcD0rv6e9U83nPZ2FTT2qYX69NFaEPPENhTx8mb+9xZyJPTv6w75z3y29X4CuvDCPgzyHMdY97Glqvek1ij3bPUG+sQyqvTVanTyechM9E5S6PSx3YL2sT+K8Mz6gPJpq2z1r7SG+itRZPOBPfjxFJ6m9qmtkPESnfD0BeWy9lCwJvU3nzr0HogI9kmYnvro6mLy1Jma9Wmm1PUbQz7zoU6G97IzovD+Bkj2P08o8ojoZPrkbpD3DtGm+pT6oPbiDlr4sWFs9sV+xPEGoJj1a52C9nNM/PTGvsr0CAhQ+WzWIvfk+ar7DuaO9wRIOPq6ILr0wwjO+kleVPY1xGr6MzA++sdyCvdGWrToYlrw9mAu/PQiShb1lpGM9+sPOvZH/ST2QuIe+w/WCvstTyjw0NYA9oQswPvfvbb5dRCO8+rshvnrV5T3qUUk9JPUlPoDNrj02Xhs9dIkMvuPodzyGfSc957QBvnCcEb4uQfK8jnNzvS+WEz3BeA88N1afvbTQxb18BFO+NAh9vc/A+72YC5u92VANvicVSr7yMqa9cd57vZteezzmTCE+VBfZPN+Y3TyBDbA9yNzTveqAnz1O8JK+NboivmJdz70cVrm97Nc7vkmb0zxEAc+9w9UfvVKkQj0C4YG+9o3Uve/Cr7svuyU9gQSBvU8+iD24qym+sk8sPQ5lcL6NukW9FycNPU0qlr2qOO+9549gPeQqJb6xnym9ffCIvggqFb7jeQO+3I+CPQwVij3IXNu7nxIUPYtHFr6e9ZG9g2N7ve/QQL1RWh29n+8SvUaGsL09mZC9dz1oPN8Ikzz1o7m8lDpmPPx+BL5CKUq9cku8PR8k67xs5UW9rwgOvQID+TzHJb69UoKzPaz1Uz0+YG68UuZ5vR2VDrtAgCG+uyWuPWVW4D07nAQ+6B5nPWZxn77H9MO9r3kWv/y73D3VMcS9TnbdPRF1Xj29hei9ClNdPaTkoD7uQzw+QwTSvXMwvL7IsCK9oOCAvnJ1pjyi9pA9srApvpcSqr1AyvG8H1SXva0cOj7OYjw+LCPgvv8l/rxd/Ka+elGbvt2Mlr1Apum+ykQLvkvspzxW9iY+35bavRosib6HFYC+FdBmPTPsdj6gt7g8ypnQPeEsiz6e9Te+6srzu2XrJL43GGq+XhHuvFXVZr5d/ZE9SMTOPVy3QD6Rifq82Is9vuDpz76kQTW+cKxTPQuGVL51fgW+WyAbvzclI77HNpS9pv41vg8u/j0J5z4+zgMMviV6FTtwIou8yJh+PYMWsr7oE7q9VgsavuLfhL3ICwe+8qpuPE3sqr0Gz4i8eDZVPScOAb64Eh++xs7tPd4JhrsKzoW+9+Q+PYB3z71IX1m9cQYRPKnjVr2ikzU8FEflPdwxLr1hKS+9lnpJvpWlyj34F6u+SpINvs99Ib79KFY9bH8GPgOLA73KPVC8qWoLvgdt/L1LMvM9U2hhvXG3zD0mIB+9DaNrvW9llj0mAnc9osSgvLp8KzwmCs088zbzva0ufT1saYo9oWpAvFjfHr0M74u7XQBtvfTF173KUds715CHPKoWjzw73A2+6sOSvVl8mr13fve5Y1JOPX6d1j27pPw9lqdevmueJz6NavK++YnwvCh+QT5Uocy9tvRVvmg68T0RGKm99yLnvM79Ob56QRC+59KqPYM31T1ta7w8o6s9vs3FRr49NQa8/5cPPaLoMz48bBQ+ZrWLvZ1XRL5AIWe9pTagvd02tL2pUDs+uhG7vh4VxL5El/g9w7JtPmIa5L1I70e+DhwdPsDgBr7oDdC9mE2vPQLFajyzvSE93XaDvaJHFL4lpGG9UAT/vKxgpT1cgLA9NvL+PTENgL6Ir1I+hQoVvb5PeLy7dum8i9hSvF/zvb1xTGq+lq2YPd7Ioz0vQOU9GHWJvVX1WT5mJga+7G04vXhDUb4ayeQ9seo7PWmnRrvor1O9YeQ8PoGTRD7UgLC9btVMPQmeTD6uy+i9FjddvkaM4TyGngE+JAGDvJJss72TM7i9TAy3PW0gLj1YZBM+IBTpvUE8iDzSizW+Ze3lPcTMqr2us7Q9/m6XvKM8JD1vuym9AjBNvWF8kj3EWcG7JWaTPkw6Sr7LEVA+rJAhvSGhKr2uGBa9emeIPUcLGD5PBII9bw5nPZ1LGj5O2t49lyUDPnUixjs6iDO+we00Ph2aqT1tT1I9LSQrPuTojb63h5M9F3M+vDPqbL34KA4+4tvnPN5KXzwK6kC+E1ZGvhOT7z3DrBE8RUvrPaVEBz5KW1M+rn29vcqsFrxxgRO+OaqRPC1pjb2EkUA+mjp0vE3CH71O/UC+aYrCvb9p1L3Iq8u905lOvbYPTr0N9Z29caj1PfcsHb8ICgy+HSWAvmuZIr4RCSG+skOPPDm2Ir65KEc9sGf+PI+OAr2M27e9wZrPvRhWHD0U1/09pJamvRqhgr7YLYa9AJz+vSbnIb3D9j6+WmAYvr//dz4Vzn4+XCsOvAj0EL6U/0c9aAIFvwAaM77HCIW+8HJ6PQ3vXL7ur4W+hAETu1zrZ7zaQ5M9HZe1vksvADzf/8e9q7hfvt0lw72mXYS+iCxlvJq4TL7SDHy88kV8vsYqpr1q5aY7hmOPvR9T+70f5BS+k7wYPhG0kj1R4I++kOMiPuQTy7wQG669vnZHvjKXCjvNp1G91JyDvV8y77yz7QW9h16TvhbOaD3YGBU8Jm6ZvlBL2ryeARq95NErvPIkFz5585g9koRova8vKD0VkQM90EWMO9Bmnb4mRM09KcBNvd0OKr7dTCU9zMmKO9oIWz0iGY2+gw0vPsWimb5zFS48OUJZPozrer388Y49nYf7vbDVib6T4iK+63JlPOuzAL6m20m98HpaPgLhmrzjP+Q9tuK9PVHENb7N5Ii9NCEGvvIHU70ZTZu+XqTpvOfGFb7i4ci9gK/jva7G9D2SuIi+mtwzPUpX0b2gSNU9HfTXPdSOFj50JkS+rBx0vvjknr2SxwY+DhYqPu8shDwPUwk+f0lRvb8+tj1i6g0+zTdQPWEUE700H4i+unKKvu/ohj4vd0m8zr+CvWbnI75huhG9pByOvlU+Cb3AJ0o8VztuvpIBGLxeuTi9Cg8KPZRLqL0m/N69On6Hvnl7iL76ek2+Vsq9PCLTs74VoK07XeY0Pt5RFb7pGWY91BPBvvHHiTwYlau+TgDQvah8/b2KkkU9K0hLvYswqL5hevg76TIFvvHZCb62fL69FlsNvrIXJ77nDrW+bhkHPc0CLL6emzy82dEFPIIbXj1lm8W+umQIvmIIpTy03vY87a4TvorFib6BXyi9meYOvfS9Kb6y0ci96uC4veFt6LwKoky9bcITPrj9m70N67m8mbjMvXoHpL36yn699giKPSVFLz1zHV++Ab4hO4oLAb6Gha49YmW8vdoEJj0q8Yk8w3O+Oi1Cbr2gWIE8OUL4vRv/OzvKIpO+AVf4vUeptr0QEro8+1lvvRW/eLzyasc9/lcrvvkGf728B5m9al+MPdZCRDsziaK9bxGDvaqsOT1k1eo7W6u4vXaZOr0DEMO98dd6vg1ZFL2xm3I9RtEtvZ/TeLwlc5W9uU8hvY3n1r3vEd49MsbNPMPYkD0UM5+8h1lVvS/bBT30cDK8SAteuwMWxj0qtI49rLkvvoLKRj7brf++zYypvW48cz602Xa9rJQyvuLTnT2xsvS9dUyLvYZpf72Dbnm9OHpePWJrzj1l8k67/275vcyXCr7qqsQ9NqcvvY+Jsz7C7J49P1MRPCXZrr7oVJo9LLaqvXIXCb6Yuyk+7apCvv7gtr6JkVk9Ri1MPsI3wr0faqK+Wn/SPUmLAr4vTgs9TLyoPR53az26tTM9rK/Jveq0lL1++7e9gqIyvcD8Sj5oZj88wjQlPg5agb6lk909LQ6bvWYCsryiZR29C/czvXgosL3Lwn6+9idJPobu0r1qlyS9sy2JvRfHKz5H1HC+Nkx3vTFmJ76bD9M9/M0fvMEtPL0+jzu+cdBJPNmU672YGV26OY90vJ3hhD4Iaba9/0rtPfebkz7PZic90T+Mvda0hz0U4TA+7/FzO8oMdL7g8X49fJ0wvp3BAz1qvIS9WwwsPkOspj2bNvY9lhBMPpOPr71ccWU91ow9Ph2aw75xRsM904LIPYZJ/Dyjzpi9caLovTRHwr0Voz6+95GfPTP3mD2f5Q4+E2IvPlWTRL2MuzG+RzZGPsCQF7xMS4a+z4lgPTCWBj5jvAC++uVavWWF87t1Wk+6GurpPKFiFLv3kjY94+dpvQ+BCD7NrbS9hHWvPc3jij32Wpo9601SvNuCwz27RJ0+PeICvjNuJz5xAhG+wgQLPqLM277qid+916/eu9ndBr4emFK+1CYIvTpIT7x6RXi9voogO84RZ75hthK9RzBHPinKmzw3gb2+owqsvdI2ub1CSqw603GXPcwInT3OkFA9GwChvcQLh71dNS+9CHOJvL0Tdz2wi46+oopMvo0QNz1KOgM8KGsCvPlkBb4kJiY9Ld9pvoEgMr4zpuE9Kjw0vQWx3Lz4A969XSBZvhzofD08leY8g0q8PQiBZL16o3Q9xPJtvpvJPD4fLu88i4QnvTpBkry4exY4OduwPZHYMb6bbxI+u0t2vYeGtz1Vvfi9voknPlVRC75ITpi91I2XvVoroT1N37A9jXXbvdPvzTnTuhG+31iBuyOUU76XNo0952tvvdB52DwQzQg9ov6rPboYij2Vi808crkkPdPFvj1ieSo9ebM7virhKL0wgQS+fNPQvLZ9y71kapu98uGDPEpvrrwYX9Y8iv6dveGe0L0iXVy9LnSQvfgsrL3Zb0i9G3bmPa8YBr394TQ8a1XIvRy/Gr5AxKc9eZ/JuzxnqzwsFec810+PPb0sZr3nfb891M5SvXRVZ7x7kpO99zXqvYEg5719+bs8utvCPWEMWj15kQa9+GBQvaYaar3D1um8ol1tPd2A9j0RQgS94JKVvfcWu7w+sz89eFqiO5M9Hr3mH548gLDXu9K3T74XR+I8ok4wvqNyGr40lTS+B7qWvYJlCb3Qs8w9HSCcPMCk2D1TxNY9aY4YvqqeMDz4QyM9rZEVPYngEL5RhrQ9KkGivXfLbrwV6KG96pGVPSOiyz2KgHQ96H1xvKEJTL0GWU6+XcVGPSiMUr7KulW+yoReO2fVWb2Xf4E9vw0SvmWkKL7Hczq+LRIhvMTJbb25Bd48s/znO4kziTwHdrC9JcG4u5mjNT0Q8607EWWRPB7pY7zSMWW9BFTovAMI+T1LGiw8yYaLPUudNb5O9AK9IzAtvCTpZDt18wg8dy4TvrA31r2x83q89+JPvYv6hTxaHvA9jzu+PTMHWr0kAM69BEEJPeM9Y75/v1a++0SAvZaQD76jp3u9rj7tPTa8BL7QbQo+FpC2vGaUHL5+dgw9JSLKPJ4a7T14Glu7oYe8vfaYBL4iLz+9rsOnvX50tjyT6xk9czqBvOa05r2YgLU7YffKva58Wjwxcla+x6eDvR0ikb0slhI9Y16SvMdt0r0H1c07ir1IPCsIxTyckPG85HYxPdtjdD1kLr69Mj4Uu14duj2l6qm9A8KKOwwqfD1g34O9LR8evsfQpL3h/jC9s6mpPeYmDb0GIK+9Y5L3PM1mir2dxTg+X6/fvP8v6DzFsaA9VmdqPAArYT2C/om8g5b/PJ3Kkz0pXJQ9Dw0vvpnWIjtizym+m/U0vedKLL5QbTk98qoWvq+c/TztFJM92LN4vdTHtz2VsN49041GviwBh7zJMyM9jb/QveswLT5m5Da75BdJPYp81r2wW1M9vW/hPab2uLyiNfc9kYhsvdU0k73+exY8eVlFvg4Ks7zo/o69KNCaPadVIz3anRE9wHa6PcdXfL525Dm+z48SviMrP77R7La8qO/XvFwLvTzXGlM82lPSPcBCsL6XrC++ZyavPdnEpj2AZqU99/JCPW82KL4ztOW8odrTPQ/mzL17XD2+3CdAvmDSwD1hFYi7HYzzvbIVer0NwH2967N2O7M0hr0cxRs+7cUmvZEqdb4FiAK9cVqhvoKUeT5N1US9O6coPrRxarsTJ8e+j3/XvfW5Kj68Imk9qNRrvqpmrb4BySK+65p7vha3pb1mlgo9MOACvvEahb1zjUW9qTWOvZ8cLD5YJi8+Ol2tvsoEA71XG7m+0gK+vvEGZzscUwK/tkvyvY1FTL4x86O78aR0vq7jjr5TEkK+vHcQPgQuWj75ooe9tyPaPV0yMD7VKsi+ps8QPirZIL51tnS+NxwZvliBrb1Xnmw9GvexPcmv4j2XyBc9gMpLvs0h774sEc++/m3zvQJFir4AE0O+J28ovzphIr5Ubky+yBlOviU6zj0sGwA+2AxCvgn0Z7ybDj09b+DSO/9ToL5PBOs9symbvWTnWb2Mr0Q8S9gZPMIXhryaxNw9izSrPcxp0ztYpAK+7qu9PQ5BxDwPZkW+MumIPfBRy73Cflw9i/+hvR6EkjtQCV89HicbPifBMT3cXEQ93DmivWsA+j0dOX2+IWwGvqeBs7z/NAo+8ktEPOfaCb67zz092D5yvjtED77QMKo9qfyGPDPWGj5GA/+9z8/xvMpOBz0J78c96/hFvsuW3r3dR9E9fMsovTdcQj1u25M9KsiovdWfq725eyq+aT+hPY63l74tTA++biy/vJFGozxsCLa93fVUPRIaEL2FWRA+qaLru4bnDj36DPI8sgqDvQfNZT0MyIK8tli7vFpdib0zQ8Y8IjTfvYYVJDxf8J48kGo7PUUk+T2Wbz49Y8EHvSaoBz6Go4Q8g041vrzcI7zUTki995ylPf0jwD3c/x6+4nt3Pbe7Dz7Lgv69ew7/PNiJIz34LYA9NtU4PZjfkr2foRa+itRGPbAaAz7I9oM9j92nvUhVar5iAR6+9T4OveQG27zMbTK9+H0VPkONaD0KtRe8xj1/vG0HlL3Cdk29DqESvG1gfbxA9eq7FlMLPmoPib1tJgQ+3LRYvaDpZ71bXri8sUUvvTe18D3qQ649A1q8vQlysb0HKKa9rV9OvT5Aj71BF7G9uQ3VvczTer1AVP+8f0gevhOjIL7uCE6+YT+hvdBy770gkc493tosubaHmD1Qbpm6DN2wvWts5jwKSdy8P1KRvUqNdr5QC/c9Ca4HvvVWxjyHIyG+xQKrvavtiz05XKm91/pFvH2VBT0QUne9ShPRPTidKb52Oxe8AtlEvvHayz2KyI28Bwm8vB0MELpxVHS+cw0nPcJU8r2sg4A9jpOhvdXvlrsdMfC8GY0gvLwLLr0n/ka9xhCkvVqrFL5G9yu+JdFuvWahL7u9Vb69OhhjvLj2ub04wEG920fnvdXJVr1jo0e7wF8XPUeUWb17wUq9NNKlvMOTgj284BW98+UNPdhhuTztaFa+mTa7PPDDYr78zSy9j4VwvpL7qz0UrQm9kbs+ve1Rjr25hf09CRGTPc02Jr6xRY89hxx4POkz4TyiBki+7UGAPSEKUju/uwm+ZhVavcUA3D1NwgQ+wjS7PYHUU75acau7J6AgvnecojxZNAC+kswFvp76UD3Pj928aWxHPiqSMb7kKi2+j1yJvvPfDT7kK+s9c1wcvN98+TzqJLs9ctVIvaEL8z1ACbq9GbmEvNVg5b2eFNa7+zW+va6aIz4aFo49iWZXvV2kdr2Vxwu+MowavQHJwb22mZ49NznwvBUUkr0K6jG9SzyVO9CvK7yuTpQ9CvcmPsSb2z0n/jI9xgKkveAutzw5B5i+hxXAvT56Gj2nQwW+SFgMPUjoaj13d129KtppvcTZVj3V9ky95xUQvoAFBD5erKm938eAvnP4EjyWV5+9Nl53vH1PjL0vYDc6rOS+PMG/7D2YnFg9nIbcvEZ+7b3ygv49WF6XvlXxkb0lXj28wDihPGJxXz0Q+Uk9+FrhPOEIYL48R/e6Q5P9PEPtfr21huc8RDGFvcAbzb1KehY9RLCovXYKs70Ctos81q5ivaQ4Ib6jZoa94TqYO/+I9b0aEmc9ntJDPB6YJj2kKo29jEOzu41gej0aQpc9GOtevaqodj0f64K9W/huvVwDnrx5zO28Cz8ZPdQIb70GWdm9y3VXPq8IoDyPQwA7IcIKvgCXwT6oUQq+8POjvVaMOb32/ES+9jzrPabg9LxVia+9k5o8vhEBPj36GSy+V1BQvgPPhz1pCwQ9ouHAvguue763qiC+4rffPQ9FID1vqPs9O2ILPt0biz157U0+x8GUPYslPL6GR7q+pGH0PMVpDz6UMjQ6C02FPniFJ769vwY+fXEZPhU/rjywZ9+9GMdivf63DTzV34C+v37dPbmSFr5zEMq9noQevj3+ib6M2pa7fqVTPSOloDwy8h+9ePkoPmaWGb3mxia+d1QHPv+VDju0ppy98Hq6PQ1P0b6yhRK9GH6tvrXQXr24x3q7cpj/PWaGiL6s3So+X/cJPSLcmb0wI+C8Sc+xvVIqg7vfYS+9j10bPFuvUL5W+Iy+2/plvRT/ab4HIU6+DxaSvWJROb1U1JK9weTPPXj7Az0g+MI9wDuNPeZtjL1K4UC98zahvs+CAD7V+KM8LdKGvo0gPTwPcMg8Npv/PX0nWr47mgs+YGZjvlduyLwEdFo+z5XaPUM2rD3wHAU9E7afvhxeWL5ASGS6sdcRvmSwC77k98k97NujPUhY9z0NJQi+7LXyvT2cWr6immG+bXJBvtu0T76CTpS+niY2vl3I7b4HonS+4IpAvRHeYb6Xae89SP8rPY3MMz3kE/u8uTQfPim69b3icu48vi8rvjugqLzBiVe8hJc/vfyrJjzFe8q9WtQJvi+qJL0hNt08ovfuvBC2YD1/5Ee9R/ZTPTf/ijzNbqO92712PWoI9ryk7928M56BveCB5D2ClFg9ouAivc05DD677qE8ZgCTvQlktz0uQKO9Ef2APUCpiz3VHIE9z4CNPckm8b31y8O9hEg2veQ9Hr1U9t09InGpvT9ti71CN+w935FtvZAUvLzHe8W9hvYnvQxRNb7Frpy97FKfPHVN5Lzexia9w+QGvXB9SDw74389e+6xPJ/jHz35IaY9/oj0OwMyR73WLZO9PihJPQHktb2ts9W9GnORPekFzb094lY+GMO9vUeY0r3kn6M9FNUoPN1k0DzW3Q6+61n3PT20hL2DZoI+G04JPn/jgL2XJaO9/Q7JvUL6TT6Stbc7g9gLPsFZS74KzS0+qijrOh4F1L34MjE9o8gyvcDR2Txuut095rHTPssUsr21Nn49uz0kPjhwWDxYXts9p9yiPf3ayr0wPPk9Tsy9PRiUCb4PV8G9qPGpvlRRNj4MkWC+rgIXvffA67xb2E8+rNVPvk9H7jyTzx2+hDhrPYAVzrwkwxy+8nSOPfnUAD5TlD++Voi0Pbjy9rw67nw8jM7tPQMFDr4mw8M9A2HUPFPyK7zB0jS+kGvLvkq+br2m7OQ92xmaPc3ot711r769YwusPcLL9L3+c5S7KolNPUQ+lD0WS5C92IoZvfNw5jzrUuo9D+6HPZZepLyvt4O8qQADvGrAHL2IoXQ96+AbPkedDb5acp28iKGVPOUcjD3QMgW9B9SEPbKlqDxSN1w9H5gcPe+/Dj317Ts8pic9PF3gFT76l849gqwsPA8t0bw/vhy+vqzTvRm4JL20uxu+O0QLvkWAkDtoPIq9OlzUvFuIrLtXWW49cVPJvTLWv7z2a628kqmvPYPlOz2Ekb499cppPFaqhj1eB1a9S+qoPed8mLyalcg9dkMMvYk/ij3B07+9sYGXO8OCVr5O/g+9/rkqPWtwUb0cLLU9z6B2vojcSD3BmCW+5RFWvXeoKT421RY+V0yoPY9e1T1+gn090JlOvpXQT70GqwK9i80WvqEZUj3mJIa8cMiJvI5iSr78RRG+BCf7vKNnPb7r+949909YPZNuWL3N4KA9FSvlvRps/j31B96913bCvX+ZSj7C+hm++8JUPNJqVb2glSc+/wCgva5d9Lxy2IO9QrkePloCpr0eFbq77ubivKGLVr4Yu4I9Dxhwvt/Oi75O6E+9xrl8vFVHNr2H1E6+oqf/vSm/Qr7bIym9S1GOvWQnKj0qQxE+NM3Gvdoc5r18hX++RyNqvrO6fL4QSp89fEo8vvDJvL78Y6G9Z52YvUDf1zyCZwC97WVKPdvlkr2Jh4i9UZ5LvcOVrbwE4cA9zcAIPpguQLyhS949fdgSPFG4VL34E6E9wPGRvbVazLylm3y8Y+Kqu+Kblzv1BwY+GlCbPeDtdr29RkW9wDoVvdUOQb5YwuS9tH3JvUPz5rwjGem8Jl4evI7Plz35dhG9remFvVQdMT2T5fs8S5DdPIy5Vbzcsg0+Ez4UvZk1Eb1O2Pi95HjIvVcct7tPOZm9F9GUvS1arj1FGIg7mpioPZTNDz2r5RM9luZIPeKnIb1mRic92bdQvDwivb2DsDM9Dl9CvSfnTT0N+ZA9X9+nPVcQnj0S+TC9ylemvQ05eT6rQpG9wPcnvYEBLT5pSh693NI9vsB6N75iYKI9RKoavmLNErtmHEE+n22XPX/iiz1HmKS9ujsLvT7Ni75atAo+VGwYPfDtQ77WFYi+FIHDvExY0j2kAYo9vJlTPs2hyz3M1YE+dpt8PofNIL4YrTe+9GAJvrnlGr0IQd+8yMQmvpcErDzUvbq9ndOkPAX4Kz4WlWe9d06BvoU/jD1gtMs9K8vrvWZOoL0Yo5C+qnAQvYxUzr03EtA9Cmh+Pqv4hT0KVH29KUPZvXwjKTwvULg9270kvqXDJj140kc+GAupPWKiNz5Of9e9bdUFPiGZQr4GPiM9uEpBvFW1UL5+8He9XdLNvRGkvrkcBU895ZFcPAUlFD0cjWq90kvCvUKEL70y0eo9AY2RPdCqxz2cnUE8HrzBPBg30z1r6za9eruNPfQStT1yuFq9JmTVu9gCsz2zSjI+JU0avf0dUT2gd3g8iYVNvImPTD0zDTM9gNaQPUw6P71A2OQ8ws6ePZSxtr23pii+Pk4AvkL9YryKQbk8YEH7vcZ4gLxx7mU90k2iPR+3Nr75F8G9/lwwvC4ik72erM28yB+MvK/nyb2K3wE+M/toPb+7ij2q1QQ9hHKLPVXrrzzxrRQ++8SGOlZBe7yhKvk94aGpPMKSyzxVbNG9NWiFPf1Nrr1sEla+vS+qvou77Lul1EK+MOeCvJ391L35AaK8ZtdGvdupwr2grco9LF7UPaxPFL7QyfC5xUbNPfEuHbyAaAg+qDvevYKJcD1Vjp+8Qoa+PXSUxzqtXO29a+dpPTZq0bzCJd49veAJPdGBN76C4iu93rpDvWDQRD6hJVM9hPxVvLQFDT7iPVy9IyoNvv2ym7yj+T29xmQJPiS/kL6I9hU+nTeqvXmPGz6oQpm+C3QKvkSHTrsuoJo9UpGMvLYDHj2Ttp28wgK6PUQThT0/+4E9p+0Wvmaz3b208/E9wEhOPPKyqz2A19o8/Y9EPXHHNjyxNOG6OqfkPGb/CL350ke9Ni0pvqvbOb5G4A2+gb6EPFWalr1c8JK8KJCbvSj57bzg02m9FA+bPZ9ZwT3CrC29+ZHpPY2rs71Ykdq9Hz55PGuZ3T1jZ6Y9ZI6OPM6bRL1NKb88tTD2PFTQ2j0iy608f/2BvVd4mj0ExVm9oIYNPqDCjb1uERW9tjENPcP1ED6CtAk9yYwmvnn0tjwlx6m9jqYavb+Ox705sXW96pw6PT9YXr2YQrA9r50DvpbNJ751cwa+631VvnNEsDsYsru6FQR0vZJ4Zz0LGyM+rvJXPce/aj1NQ389IBLSPX800z1GKOK97GuBvPEbij1fMWu80bsKvaix+zwoXzY9hJNLPH/MOD28EZ+7KBnoPTR7UL2eKpk7kg27PbM7GL6F55q878KkPZX7Ij10H2G+W0+evuyhvD0ulmQ+xtZsPsQTcz4BH/g8izN4Pb4jtb01LjE+/IWGvFjR4b20QPs9NHKgvdToAj6x1bE8k48tvrJdOL7PKnc9F3iePVvoPT4TIlm9ZDtaPm6VmTyZDrk9dCTfPTM/xr2TtA49LvUnPrqFob0edmI9tC2PPjU8FL7K9w6+qcHLPcsVkD4TFm28sC1VvYZZTb6csRe+Hs1IvkXpbLzUpC6+DEmdvmpaDL54Hqi9cggtvW5LPD0n5jm+T6hVPsPvZrwNZfa9TzgWveqrmb06Nde9OsfuvQHJr72+Yti8xyMNPeekkD24N6S9YfD0vPRrQ757m4E9YcLMPBcwEr5zK+88SCTmvCQ5ujxB9889UYNtPWH2Tr2zRRm9/jIpvYjB5DvX01s9n3qBPLL8mD2E+cY94LjPvRYmjb3rzJs9gJY0vXDz0D2leoQ7fuOaPU/66T03/hG64M+NvWS0kbtzDu+9QZu8PTpufb3D7FK9i2usPFlh+D3FZwO92sH9vQf/Xz3qaLK9pB2MvPl7SryKReq9rLwLPaFKnz1ab188O7mrugLd771I+nE7qlmQPLlW9Lw0iYm9+c+tvXXkqj0NlKg9CzBvvclLDD1/j2c7aFJTO6SvmL4rETo8E1ujO0va0btMRn2+VjgtPsdnkTyU78G6r4aLvbbWtT3p58g9BMz0vbQ6UD0cx3q+qlnIvuEINb5hAcc9VNYlvhCUBj7dvTE+7Z0/vut8zD3WIEw8HqGPPi0eZD7pJUO+tm6IvuGNNr0L5qm6HSxEvlmVW71eZXQ9mOuPvs71/r1pNN2856esvc4RHLyZfOy+TjATPtOOFL5irv49FBh2vaf8Nr2eXQ2+ANiXPcGfcT3Dafg7hZlZvQv2Xr3njok9Liw+PtHOE71qUpo94MPDPEKmjj2oVjE9cKzZPM8+Ij5R+pe9M8VgvWlRqz31qhS+E1UBvnu+Ar56n9M+xX6cPgixP76+q049cNXYPbU1870TrsK+4cCYPup5P744t3W9wcUVu8bPWL4yKL4+zbbhPTP9Mz45BXa+47w4PSipB76EpqA+5THdviRXPz2id+c8DrlPPbFJlzvq4Co+t2yaPmyfHj5UIYc+TRrWPSFAkry4eyi+HlsTPMDnsz0BDwk+O+xFPsBICz2tPYE+4uJZPi+mAj1kmI8+elnCPfcrDr6na/E82AVXPnQeDz/NBoM9aDUBvjx7iz4Er2M8ASfNvXagUj5FzJQ9pKMIPiiGvr4upEY9qQhIvXsQdD5rK3K+rbIKPbWwGr4CGHC9f5wnPtnvj70Pdhm9CyZmPKsqEz7lbG6+lsL8vOYFi7669AC+HU+KvVXqCL0Kxlu+BdPevhrFiD1Ru569iM9PvmEKE72cSWO+G3QuvrzeFj7NuoO9YHv3vfvdET4OQpm+N5qtvYDZqjxGnZa90kT8PBLrG707Eki++zTEvkKFh73VZdK+kpjTveLfOb7zwqs7iiVYvhasiz0bFH6+wfwRPsyCHb2YMa2+hJ0lvlKELT134aq9talNvVtYe77otjg+TC+jOwiTjbyXR3q+gWQnPW6RiL4vFPu9z6U5vQMcq720Xc29HPI+veceer0qL4a+K9sKPNY/xzy9rU49cUnUvPPiob1pbfO9Ey3DvU79pr2Ck0c+1XR4vqNK4z0QIpy+FR9ePSo1Nb54lyM8I/m/u1pi4rxtb9g839/KvUgCHD1XVI29P3ADvIf/g71a6lc+/UEGvhjUGD7EPe497f1OvhAShr20l4a9X5ZfPhh9eDxJ6sE801khvovE1D0vuag8jRqivt98lb1pkk09WPsBvkr/iL7JWxw9fZk8vj5/IT5KiHC+8g1CPqY7H76j2z0+E9j9vZ+ikzs3XZE9VPSFPqIEDj5TiEK9rLDXvexjzrycZMQ95OASPgi6gb6/efs9raW7PTeFA76fCa89LzxmPrCLLj3w+T+973ZEvVXGUz7o3Q49Ado+vmTM+jy/Zu89FhfKvObdib1nZjW+QOPRPeQwkz1p5QE+NKzGPUDQEj0qEQ6/Mlymvr93lrvETAm/+BoGPpM2gTxNqI89MQqhvrB7Dr5hRji+sFHpvabfQb7icOG9NywIvZ0MQT076EY+m7QDvqfchr06X7i+lOjgvRyZAz5bRd29NRcuvvm07zym2Ns9FqyEPWO+8D2A+A2/yeB2Pok+HL+AyPe67zHCvt/1nb3nEOC9wxUOvr7od7w2GWe+wupCPtAZSr7j50u+di6SvnZkEr88OKw9vbkzv07A8b0dwLo9Br0qvvWO575IQ+2+By4xPauhqb6AeFe+uBuxvkLmXL4Bo/K9mLPmO+a3eb2cDaQ9iZOnu1kVNr1+HCG7oAJQPO2uGT37TB49WtAbPrMuq70sZIM9CYkwvupxNL046Cq9XXDcPJviwT0KxQc+BHK1vBcvULx4hbk9NCGUPMNxi7ziy9M82GEIPc4pr70c9iE9pfJYvQCQlDx/1jq8JBK4PXDs4zzl/aW9ZuPNuwWHt71iZo+9NQI/vUkFh73rUrM6bP8XPUnXNr3XSQW+CC3/vSdBDr7oSBu+d2v1vY8TnT36lUa8p++nvM7BQD3yoGu8LS6hu8jyLL2b86A9Mo+VPbHolDr48rc8RYhdPIgPBb08aW29iMy/ve36kzwDZgc905JkPYaGnb4LUZe9RwoBPkpASb1Fn7m+Vm3KO4hOYr3U1eY9at9UPYfjGz2kPyc+MSBjvqQRwz0Toh++yJuwvgefWL5qnnw9iuqZvedtTj393NU981OlvhK8u7znB6O9uv5YPqgDiT4jmrO9Z3eCvr+bRb0Y6ZK9uEWzvtjUMj201547PtBDvpnY9r2NWIU9tEBNvuCSwDvZM8m+ZmuNPku0nLv5GKw8Xql0PcbOaD2INCG+2da5PUkEXz1hjwg9lM4dvg99973uD589m10oPoiRAb11nrM9USH9PSislD1QowM+OY/hPB0zJD6eTwa+XBcKPZAcnz1LeLy94b85vtM3RL5U+0E+4cCEvgxmrr4L320+rAIMvsnvwLwbvVa+mBqVve8jI751XM+9K6ohPvniMT6jwkM+Vf1fPY2JjD6/kxC+jDo9PlKfNr5xpRk+DK9Fvuzxib3WZ4s+OMiDPeHVaz5f7e696AANPrfKCD5W5kO9gq08PjCXRz4FsgK9VnOuPdu5or33ymC+e84VPdG9DD2c4gA+pOk+vruK771mRyU+T/ozPra8Cb6/2ys9N+ZKvFhpML7Esb2903/dvTCqMT4d/FI9FQ/JvXx77z2PdxS+P4Iqu/czU76eqwo+6z4pPnOsHj6S2ua9jgYAPpLhFT6scMu95Vg7Pksrj75TBvM89EJmvqlfPrtOcJO9Ll6QvYUjKr4gvAA+UckvPVdEFL46SXm9ZOGuPcq+lD0AJbM8V/1dPBXSKL177iy8C0swvayzMz5iUKG9SlWlPUnNQD0HjMO9Hx4uO8VDsLyVqdU9zuCIPdT0eb1aXSK+aokmvGOcJz2L+MS97JptO2BDebyp7WK+elwDPYONw7w2C6C9QTkIPkBNwb7kj08+erEHvZJSWL3/fAC+Zg4ovCLpib2gBMs9/UL1POEzrz1W68e8MSytu2c4AD43sRo+JTe+vZO5ljz+QwU+8wRPPT0wAz6OAFu9gX/2PcPwXjy6SgI93wbePQfXWL35+1G+YJsGvq0BHL5MvtO9hT1IPQlSsr3N6Is9OWeavNw0iDtmK1K9VIg7PQsWoLty/1+9RgscPrf+tjubdhQ9dAQ1vP6Iwz1LTRw9eD1KPW1THjzCy6+9n1fOPPgRhD0AWIU9TGu8vEKUAL0wGAu4yziKPcx2fj2weFi9dXyBPdFcJz4gb9E6rizzvdYRc739dHM8GGmLvbpY6rxEp7K91hAdPUyQ8D29tCa9wRIgPeMOFr69YYi9SOoUvhUQk738PVm81kJAvSIHsD051wg9ylw5vXlNgr3T7xK8o5OEPV8Wzz37I8i8RaTevdiLeT0/wrK9zGRwvftpab09Rbe9RuxqPRsVKb5vIWC+x1OWvVXOGzy02Dy963VfOQsORb3tHlQ9ayQfvjz07j0dK0A959miPM+NHz3w7JG7QxmVPb1siT3uUZk9gB4oPS4X9zyh5bc9pkNhvYzVIbyC+t095RS8vGeGmD0/A7c9gGvNvYVMsjy6I6+71v4HPiu6ZT2yGq8925zEPYtktb0rEJm8Q16BvVGosr2agAC9zSrwPJ7Sbr0/0HQ9nlSqPD6ROr3PcqW9Ev39Pd4kOb48swo7hB5HPa9DIr1Yb9w9K3eaPakDmb0u2sk7pvEPvhoDYD3iGQk+bRSxvN6euzy0pau8qWueOjiQ27zYo4K9jixNvV9v9rxhpke+7fE+vd8Lmb0jl+o7cmDlvUcsJb2WcSs8aDA0PXScnz1otYg8m5UCPqgOH71m7RQ+Ma3OvTOfL72ZPIk8Kt9qvLHCGrv8FAg+2j18vLO6/r03Buo8ZaqlPaDdcr0uPBm8N/uYPUKpfb3Pja28CcYEvoxxAr1Zr7s9byvCPFRscj2JzNC9ZzY/PcWEDr717gY9qC/rvApEuDx0apE9y/wYvNb3JD303Co9Mw+0vXfKS71rqaC90/cBvlpP9Lzzems7zs4tPRwA7Dy+YmK9d51nPalDjrxob3e9Z9mKPe4shDzP25O9rqPHveXtELs5nna9Dth+PSdfgD2yWQq9Nri6vUxclr3NkCq+TLNTvR/3rTxVvxU9nLUJPY/uVj01/9s7Y4CyPSCU9z2erBE9d34NPezIDzypLPI9fTQdPWdbqT1gyxA9cUamPW1NzzyMZ/E889tqvSsDDT5xHFk9gqdtPdEXMb2bVVW9u7KZOxhdIj7QA8I9CrRhPaNKMjyLHr08cIbhPDy4Pz3ZSUG+dpAKvPd+XLz3RRe9EtVaPU4I1bxyCLM9HZNIveP0Cb7cnNU9Iv2ivSBi2r0BpZC9+AXrPWVghD2XXLU9AM/PPZf6pDy51Tk9aLvdPdBENT1LdrC9pa6vPYTRQD5Qj1E9UsBEvWtrCr5v+xI97SEIPYeTKr3TFfI91TB7PiQqnb6FnJY91Zr6vVX7Br4vCvW9PS94PGpc4r0AqoG+TGuVvvDVWb7Z+io+nqzpPQtoDj0VJ3o9/CeCOzxCKL4DNp49NO6MvHWgWL6yw9O7/sU1PR3GlryCY5C+mMc6u7Kgtr1t3a49KPMMvWpPuD184Re+NSTzPVEQ6z1La0O+6u00PtVjmb0hMKI97K00PhDfT74lUi8+qWz3u4smLr0tLDW9oRBrPauGXz5zKpi9rYFlvo/2Dj0ktGu+jqSRvsSSaLvCdkW+CIFsviEjO740r52+E0msvU0guT0vjHe+p9aHPSssLz1PXt+8dsIMvmYRob6ruDm+thAQvkcdJD3kwd+9trVBvfRE8r1piIA85I/cPH/8iLwefIk9KJEHvVYBBL2AIA8+jvLwPa3PajxUGvQ9d9gmu4zMbj38x0o9YjqzPf5uqj3ccLK9xMJ3PK1PRT0ma668wM4Ju8wqCb69CsO9hfzEPGj4+z1UQKo9j8tIPfWXvj1ayZE9KLJivHkQrb1cg+m8xN7yPPupgzu/ECg+IkJXvMVlaj58D6W9yuDhvU104j1vCB49EfajvMvdjb3sQpS9JNi9PWC8JTyNIwo+ZvCXvChjHz0+b8e8qSuwuxWBMz0PwxA+mrhDPXlVfT0PrBU9SY+NvFfO7z3mETu9EcgMPgyyMr5WRcm944R1uix7Pb10L8M6g/lqvfLaiTzI+Aa+uFUuPl+JsT0rXqc7b2KlPejW2DpDwbM9WXgdPQCDeD0Ud9q9jYQWPR6T/bzWwz29wl5VvZjMFzw86289G1MCPQPeqD3oWoW923STPbXXXD1JYak9vl+2Pb/7HzysYHA9V/BtPfa6ej1V9Au+ZG/mvRYSzr1crpI9eJwivRMZ5juD0AM9UWTaPA5nJr4phFW8wrrkvbYAGryywhE80Bzxvd1b0T1ggfs5KZVavYov8z0dkLM722qUvHJH9j0Szxq9fJCnPMjDgD0cIZE8jm8wvqQVV77W15W9qF2pPa0BEb4WUqi9J/jRvah3Jz3uMQw74v9LPZU65DxZvhc9F3oNvr/xnro6HQI+x+uVvfEbKj4sCm064dgcvKZ1kj1Z14y8q/BdvQpb8T3gohC91syUPbHno7rlSqg8rVtqvfEhHj0xY329J0LWvZS3uT2MrfG9fFCtPX8y4T14IrU9s2sCPgFgJL7q4dm8LnI5vaXHE73VOJu8LIedvbwfbbwtS689mJCsPb5r+7wT5hm9f47XvVWYVL6RlCu9ew40PQzdpr0N7F89nQW0PcsHhzyGeY69Yg+xu6QEhTyygtY9yvebva2Kwb2FzHq9/UbVvfMTrLyiP+O9LRV0vTKQIzz1hNS9YrZtvigXibyjypY8Cds0PZ2Aj7xNNuG9eFQ9PZHwAjvo7Ok98T/NPdIIHb1xJ7k9810APldeFT7luHQ9bLoqPNF8nD173NE8wyQyPmhAvjx/Do88OgVrPWacmb3858i9oP6YPFWPY74Iag2972kwPTKYjz2X6es9lGeiPb14JbwZAtW9WtZavDJ8sLy5vAi+ljzrPZnhmz2fjrS9DpEzvUegkTyb6Ba8FuVsvvC3vT2lwKo8BlzGPaZzAz637wk8eRsvvDLIqz1uvWo9h/W/PNBsDL7pan09GjrVPCUx5r0/8hm8zdF4Pf657j3X2o49LA8cveHwKT0t5hW8fa58vS4vVL5airO8ogl4PAWJ8DxViqs9LjaEPFGMwTw/Ff29H7YPPdvjKryoB5W8xrWtPUIqFL092v28AREQPbONPT3t6Qq9HaHpvO8DNrwfZI+9leSevAA+kD10rZS9YLCzu71i3L0HO4i9J0GoPeVCHD39Sm092L+7vdZBvT3fRv058oHGvb1XnDpG6Nq9wAzdvX8aRr021iY76/2GPaYlUD206fy8s1isvXMxmrysYHs94334u0dFY7zn4+E9Tzm3vXt0+T1lhTo9luJzPf9biD153SM978ycOcP2Hz25tr29YUKPPNqrd7rvjPK7WyJIPbeIOb1b74M8KL9NvTjKfL4b1oc+afatPqB0j74+4UI+3Zrzu8DHM77GupW+j3QsvIQYab5nzSG+oTSxPI/Ddb7z9tq9RZdMvu7lZr2NtQa/jSZ5PAn2cL7riVy9IuilvswKgL7CfaM9A5i/ve0utD2hWLQ9Auq5PgpbcD6201e+/1dmvmHmxb1Ohoq+IUWaPdgDtr1dCqm8QjaUPeTNLb1Q+EY9aFLYPRPh3L4BGR090IGpPWBYXr0FGMU8106qvlvuzT7pnde7vv7AvWRUqD5v4ny8oiu+vm/Kgb4Lu4m9/5esveXXG79v6Io9FATvPe2Y5DyaFZm+xfKzvSwrw70VYei9eWdKPXgHabxPANW9lW9SO84iND4LQ16+fxrAPc1+h756upe6ubjlvOWwkr3ePS2+JdKdvfP0970AORq+8DUbPmADGz4jHiq9M2m5vbt4WT4v7Bi+zIhTPvTosT2kvHW+ADXRPJ2/gjuxBQE+paOuveMwlzveeym+jJ8JPYQ9XLzFUxG+zI2avEqNIj47ZNS8L4dFvs5wwD2Q/Ze9xC40Plw1G75Jix0+qNkvvnLz/D3CTEi+4oxoPWBajbsNhXQ+ac6BPVnS0L16j1K9sNQyviY60r3VR6o99+AKvidCaT0xy3U7GhNbvHJG7rzG8Ag9AEl5PRlV/T2lp9g98XEtPtdWW73czaC+6d/ZvNPCo70ktky+RlswPVemb71d3gM+ZopWvcZboj0M2vQ8ZJFBvRAI0jz/qV49Bu+BPRsjKb2hvYk9uI72PVi8t7zEMI090PTEPXwelLviHey94I1NvWx7wT2qs1m94VuIPaYwEr77ZKM9eJUNPW534zw+H8s9dAt3PfT4IzvDCC89HIdFuxHVkjwr+RG+owsbPSHPXr34Vlc9IhvPvAbf7z2W7Mk9/lIfPTGWar0YXmC9Bdh5vquxib10w+s8Q7pBPXe8oj2T/mS93PO4vZEaNz32DJs5oMYLvnz8hjz/3Hm9B84Ivglovr3V1Zm9OenivW+aWb2zD+M7hhhVvS/qRD7QQXq8TQ0tvsnkwT29+T2+Q/4bPlSzkL0d6Qw+WMUePv7NoL03RZi9SaJIvn+OIb5Hq9c9h+Xru97tLjwTLn093soavg+dsL0N8nO8ThXSvLTjZrom0Py9kMoOvNkK170/Xcw96VkXvoSwbL6QWjQ+1zEBPr9IGT5Or8y+IdMxvXKLRr2CTxQ+uh9+vtllBj5lIgi+gQYWPrg2zz6rSIa9wJlkvRyorz0vMzc+S+DZPZmukr7ACWI+WJThvkODWr55XF2+tvbevF4UrT3baas9YSamvTYyHD5HjxS+ZjpCvvaL9j3Z3Oe99ucDvuEJZ74t6bQ9YaWDvnDHBrx0ZhI9fIZHvgu7pL2JPdi8J7qPvL9TnjxgZ/U7ttE5vOZuYDqlgKe+9/vmvZDiBr1n1Dg9QomdvAn4wb3l2mQ9Ya7xvXC71z3aFkc8yV13ujTZlz2efgW9QWT1vQH7B72ycYA9JEFtvnQ0+717FZe9AEHwOztcrLwUqeY9riwEvjAlZz1i0+m9CDMVPkQCQ74QmHI9xj+uPcXsYz29gL09+jLCu8d4kTx5VAU+PYSAO1eVzTxsJ1K+SX0JPnSZ371t7ri8scuQPWlkH7xYFgi+iHnLukASxj2PcEC9dz4LvkZG2D2Y4RG+rTHQvP7cEb1LgeC9tb4qPdArhTzrUi+8h2DGvDvAH7653pe+fW0YvQX/kL4vlhw+oppFvUpvgj4/vGO+T7YWPmSUQ75Dx5c8QNJsPS544bxHTFe+roXtvGnTfz6IFKG96gOcvPr6ET2ruyS+cBGwveYvaj6ltp49u4t6PY+o+7zaL20+rQhfPsg2iT1MTN69t+tRPi8qHD5UeDs+uM4evk5aTj6F67u98PJcviOyNr44lxa9pAiBPedI3T3mLb69CcAquc4X/rzNp589wd+uvmZ3Lz2wuiw+59jVvavnRL5fk1a8XCmPPJrxlz4NIoO+umAgPp+DOj4YcgC+jYPpvSDARL0zcKy+L+X5vap+Tr4QthC+1/EUvt9W7z1pBlq+7XM4vW19+T2uUQA+DQKYuy5QvzxDfc49WiS/PPq1GT3kEY49c8OvPcPPtTyvSkK78R3YPHcinT3TjDy8VyYCPVfWBj72oci99qzZvZ4M4TyHpD27yp4dPb+bRT1UykG9kx0Gveo0r7wyDYo84+eePX1slLzcpwk931IUPRUcAj0iP549QrchvjJgyb1ggtC7aSPEvGd/oL2iWu47UqkGPfOdxrwiTii+ZpFOvQd6br7GefC9zEdNPBAaBb79btg9rTvlPaYx67wEuEs9P4yfPE2TU72KEwA9UK+yPatHDTzEEvA9YQzLPXYcmT1Wh4m+n1WFPZJG+j2qSeM8j8o9vqcWhr3gm6e+WSuyPbZnEr4qEVe9ghGXvseaIz3TOyK+Y1GUvugrvzzhr6+92oErPtqtQj64Ewm9eIMovkw5SD6Z4YK+Xq2TOv7oWj0GrFu9Uj1evZmnBzuuuVA7CNyCvn6nLT6DTCY9lsbPvSUM37yfTz49X2uzvgE4vz3DAZG80pxIviQEcT3bTpG9ruJMPlwOL77iWxe9/i4oPUwhCj6sYLs9dVi7vaJSbb2fF/g9a+kSPb/qxzyPZj4+7rYmvkAOjL4kF7q8aH1Yvqd0+T2F73e+jv2ivfiHLz4MMAK+U407vtiq1r1uodi9QBycPR7hyr1jO8O813fLPRLH+b1bNx++vY/sO3+DwD1YUey9JpmuvbvmA77vjQw9r/DFvbcljr0+OBk+avjfvDf5lL1ZUAs+R1QSPnNtsL0SzYA8W9fYvXndkr28MCO+McWQPYAqHL4H2uK7LJkUu+B5OL3JNzO+53t3vtf38L1B+Js9V6jqvWCbAzzOFKY83c2HvBWDmzyiPQi+I+o+vX8dQj03gdA8RsvuvSLW6T2NJw4+J4cLPJCUvL3Qkng8vMtSvliEL71r+am9PGmCPSIaAT4iW6C9DkqWPS0BLr7qub880Csxvm07b75MvyA+krh9u/rSRb24LHw9aFqoPe1eUr1iNlK8Vl6NPYGgyD1npuS9V6jMvZPWgT1BgNU9S6wxPbuJAb7c6ps5aRuAvfcKgr00vf28ohKSvMZ5Hbw1kqE9+UApPjsLwz2JuuI9A0PkO4b8Dj57FcY9jiwhviPOKD1EiT29pnbQPLahDz1YrGO+68KUvocLXb7vhYY6c6q6PD56mb2BOY89ftcGPODFND69Tbw7J81FvrUsRb03oWe8IXaRPOiCCj07PKG9kDM0PpQ4ub3St3K+zKc3PaaBnr0EQcO9xDkcvmwTUj2J2R8+LiQcPUQopz3Q04w9cmGTPcpuXrx6DoC+70vyPdLF2byQnvs91d41PnE+Bj4ppwO+3gWYvTvU4T3dvSg98a4LvnR9v7wXqbc9Skg8PHzSFj08Dhq+ExsyPc4QTD18uhs9H0vqO2csSLxrosk9rRd4vE3qaD155ue94rU6PWT3u7x4MIQ8+jJEPftILL45N5M9AsgWvQqcQr0XG5M9jn/UvVX0rL3ezfO9iVQyvSGZA70Hfb29nOGnPAfSkDvGhoO7IGnaPX7RyDttZXk9ti0kvSKMar3fpQG+bKNevZlYR70eAJo9JO6su0CX9Lwq6Bu+yIlXO9BMNz1Ij8y7ZGnLPcoBR73BA5G6QBafPa9LkD3ZeSK+DhfLvSpbCD2FDzQ7XBCquyLXuTv1aRg8blwyvsLHhrvjJLE9FvY6vfgpFD6Q50o8tMmyvDlnJD1mqFA85mrcvdWOjz27c1M+LJ40vq7CSL2xU869V3flvEUtFT4pzHc+UVOBPvH/qz0XBCA9gFkxvsDLxT2+G/+9XlE1vZx3fb7P8iS87AwkPuZMAT7/NdC81eawPCDUCT4QkeY9/ikJPq+1Sr6Z9jU+Du6XPadGlb1hAvW9k7IsvIRzVz3ak3I++zu2PURimr3Adic+5nUwvp9t3r1P3w0+Cn7MvIxOIb5SnkK+UdURvUq67r3stby9Izo0POVzhb7P+Ys9V7IyvrD9pb2Eqqs7PPBhPqKssj0clzo+beMyPVP3qz0fW/S8VzfgvYKyrjz5lWy9MeIZvryWED7fACI80Kv9PXU9x72jATk8bk70O/ZyaL23SmW9ASN/vQy26z2ucbi9qkLSPIvbzj0wohM9+NqePJC0xLxeFpS9ToYXvkGFP7yCivi9NDYAu45fRD2ME5S9kPlIvVvzxL1kKJg9X+vAPayBwru3EB+9lMDWPQsJ8D2TCwI+2bZHvrTjzT1MXmU9p9LoPc3oc72H17g9ImQNPiJOwDxVz0i9cHwEPad0Hr53t3O9IpXHvXK1U7xjBMw9v53BvN8FG70fXgy85TQ9PQxonr0bb8i9a3WKvQxRVr31U6W9dfGEPajp2j1nrvi93cQgPeyyXr2ASRM+F0OKvpkFLb40KRg96IjfPRqiC77MtvU8/ei5PRyySb6GBVs+9C0NvlSL9T1g5s29zD0KPXcaEb20iYe+rq+fPcH4Mr632S0+bQS5PTtUrD262QQ+920XvdLArTqqwy49PahaPTMhOL7ZvqW+Ri0evjt/AL7QMaE9cBbbPdL7fr07Lxu+brbjPf4f570Avtq+k0l0PdFD9r4DMjq8XlMPPt2bPD2XQIy9x0x2vu5y2L3XNsW9FsScuxV0LD5UWdC9Eo5cuun2WT19lDk9jJZXPlT0UbwaGXM+bEK9OvH+0D3Ksp+9vc8DPiTDursZOXM+Gq8Uvnv2PL3ET2E+nuJdvqxmmz1dBcw+Ppuvvsx00T1Gdp++C2GvvfGxbr0WXVc9SqlfvgNX/jun6EA+0ux4vudpjD5+MHc88XWKPomb/LvjUrs+ldbovcnZzz0v7Xy+VHcJvTmJ7D2c0Z+9RKhTvTtRkr2CSXo+ZxKYPpc+y718F5Y7xFfWPTRJw76I0C4+PQm4vL0lQL4Qu24++H9Bvok7gz4EZqO9qUPDPUk/az7FPYU+BbPzuoCOUz0j5sg9A/GdPt7NBr7GVZy89JgxPjEmmzx6CU8+xog3PvS7HL4NUo69Ex+FvuQmQz7TjYK9e2qtPkbQQLyqbtU8oq5AveRB8rzYxAU+J9exvuAAJL2fc6Q8iKkrPmWOy744OX0+v3Icv25qa72ggju++nnsvSxHVr7UlYi+HtuAPoGF0juDOAW+eOX8PY+2dr79O/K9LC2fPaCNhr7Ebt69wEInPcvCTr7oYhu+SPpLvY1HwL2zaAK+aSIDPH4jxzxwbvO+ZoQwvo76Ab/ymKs9HSp4vq0jGz0JEJu+8eVLPXUTob5LWMI9g9Y5vskKy771IrA8NO/IvVse9L3gWDi+2YmRvpRaVz62d6m+IWw3PuO+BD0phwM9WRJwvr3/273+z7G9hKWPvbmC570Fmp29zOiQPbfKV75WygO9EvIrPmxOKD6ZU569OSXivd7/Ar7hBkw9Y1t/vs/fxzwgYYe9r6KdPj6RzL5bpq28s6XgvCqbR7yJeq87enkBPSUTtD7IZoi+eRyQPKcuRz6aA+W9LtiVvfTowbxUcSo+E487vV5veb3+sic+EKtivgnh5zytVa+9xp8kvkPlub74qry+qtHZvYjTI75Zx7e9MRbCPYPIgr7hRKQ7pgmvvjV3ML5V1zq+GreFPgEyv758UzY9fj8ePkE99z2Gnoe+nQO/vmFU8r28/5A8hhpFvoK7Rz1qhhy8Qwa5PVUA/z1AVdg96XR5vfhdCT45tqE9dQfIvs6Eaj7nzuE9gIcsPrY/dD4Y3js+KhLmvZujVb3TmYQ+ecQ4vkvpkT40cgW+V8m9PW4WiL57QFS9dOzvPde/ij4Ovoo8wG06PoTibL7/YYy+eiPNPGligb4WehG+MJETPsDFpD5vaT2+r9lSPApRw727F+K7fHnRvmRhnj4AQv+8lFc4vaaCLT5aYEW9i18lPnr7Vj6eeCo+igRtPo+rgb458XA86aw0PaxyjDx/JyG8y5BRPTe7qr4t+QE+egsPvvDdmL5135m+JyigvqqjE71FYJI73D+ZvojiHb4SNbY9mlHpvhUAcL7V5Oi9TPuxvbcMAr1vFQi/uHbpPJznpD4/deK+gG2qvqIm1r0DjE+8/QRDvuM1Gjv7yn691LTuvuuMBT7rPXO+087kvQHS7T24A+K9ZK/kPVLU/ryJLxW9vYCuvSwJk71Ybg29R6gCPZKhLT3MyJW9CiwKPcXrjjxBpL28GYHZvEYAF7s0+/u9XlEhvio80z1vXz69c2Q7PZIPRLwRYSS+PJ6EvI2h072dkfu7YqWfvGJvvb2hwVO95+7FPYdqlbsLqd498NKMvaAfrjzwFro9DA/Xu9lQ+703QOi8u2EjPeBHpDxs1FK99SXCvQ9vAL5GfIG8NneBO9NtIr2NYKg94bNPvWR7G74UVpM9FHUxvRuzU7706AA9yz/RvMFO/b17Ta67k2S2PX8Qkr2MXtS9GuGrvIZpPD0zu14+AmFxvoTLOr1Obls9SVXXPVkG271Dftg8R3gEPlNGYr6NikU+o2oAvqJLjT4C/U6+WLFFPTz0KL44Hqm+L9L9PKMHt7yD1LI9+6wTPjq7cT04oic+sYkFPuJK6LxDUyC+36PGPbtpUL5euYq+1Z86vkjtkL5AoiQ99iiNPhQghb4J63q+LHZevB2fwzyOJN6++1rlPJcv3L5+Q1i9iX3sPSze3Lu4zna+LggavplVxL1musI9XSvjPP5TUz55Nja9jKZDPUNJET6EJ0A+AvYuPpeGGj4oIw4+uMuXPF+TFT7l3Wy9ucshPnaPqz3x2oU+J/5CvTgra70dhTI+xCaBvXYnAL5HXH6+ps+ovv4irj6CWkG+2PwPPcJYcb2jmlo9M4Fnvi2ofL7pA/Y9M/OMPJSppD5Mz90+7CFjPq8Ir7xllxQ+YAHqOw9JCD1Oemi+O8MIvqnU+7x1oRa99FKRPTQkmb4CU2A+8ckEPfX1DD4mcuU9ldc7vb0+Dr47b/898eJQPvGI/b0H7Ha9KzhdvlJ/UD5v6VE9qkOdvXMcgz3D0Us+ygFgPiMuqb2w1U8+Z385vslHAL7zQnG9y+ZPPkElxr17Eha++bUXPqjABr38lNY9fEwmvvuq8jsvdJM84m8bPqk1Zb7K7TK9DIhaunv4TL1ixxs+pGHuvYS9Uz1V9HC+3S8Ouxl3Nr0gG267WcrqPAD8vTyg+U29JYBdvk39NT2Q5iA8AdwAPvKFMz3atRs7RiUiPCrRHL41VSs8bVm3vPQWiD0/HVS9LdW2vLaalz13/XK9H9hdvYCo/zs09jK+5+47vmQFCL5OwMm9svIpvTACxDxRkpg9gRh3vd/BKz3VeEU9LDITvu3tr71foLE82HUovlQFNr3hdfA9cgnxPRS3A74BEYO+6NO0POaPIr0t8+a9avcnPniQsb3k3+M9Ej4KPSuk8bpaggE++L6aPaaeDT7GHhC+l0s+PQQlPD2re9o9atK8Pbb9bj1jtde9Tq7oPTMgnz3p+oQ9H5QTvv0nD759WES7lEHlvTlpxT3B8yO8TF4GPqthX7sOT+Y7gPT/vb/ihT2I6Me8BDOpvWWCsLslVvI8ootJPYI35TwbANO8v0MVvYGyOb7HfsY9NiB0vXjPgT1q9zA9CqggvuwMtDwgmow9gdHZPSmUgzwSKRw9VPnIvE1f47wrE0w9+BjNPfTUSL1RTG09Ne0QPbn+hzxGHP88N8BLPXroa70LlyU+FjvpPJAnqD0hJUm+oYmZPZhDfL2MgY681O6RvXpY1LnMZQK9N8J5PXMCVL1a1AC9/LPOvLd+aj04Rvu8uJALvg1BkbxrNva9xuvovb62XT38isQ9XWGLvdLrJr5WDRi+RSGbu69Ya73SDg4+6LOOPemNuz2M8868aempuwHdvL3++PG7b7KxPeTovj2PK4S91DssPtObwT0YbmO7njRIPO29GD3L6CW+0DFzvc7/nzy1NzY8B8DAPaLg9b3n2sK9PuucPVzk5Dwrp2090ybGvBI2T7smJCs+O42EPMfCfbyRzDG+Tl7EvFR7Jb2R8rg9Ey09PAZ9bjxI1Tg9KhSzPWShBr00fsm7mziXvibex708RAu+v0zAvNWclr1RqDU9TrLCPYhFlzrskvu8wOXxvOLfxL2XC9W8etljvRJkqL2rIey96YvmvGc1Vr2ou6C9hqHlvCHMnzx3QEG+UlBCvrypiD1Mn+a9kXg+vAjRqb06ocC7zx79vZsGbj2k0s28NjGMvXEKpj0hsAC+XLztvIxs1rw5INc9jDARvV1G2j2YvA45k0KpvclT6j0z3tk95yZNPRNR/zraHUa9OqdWPfhdzj1oE3e99GLGvApHPj0QLKg9RGuTPPIEtL1GiwA+KoP6vf/XFT07UXm9tYojvCvq1bz2WF68pp/0vFLsgTxDchW9aAyhvQ26Gb7rpea99FPfPbhyHz3OCLU8xgyIPajL970BNls76DPSvYSdpr1BvZs9RriWPVUcSr0uNv677ovKva4VZ70gjhC+NS47vYNtdjy2Oto96laEvrTVEb06WUA7LbejPc45lb1zO9G6JiMRvYRsdT7fmLm+PokEvZFYoj1B+B2+x5UjPsVSyD21Jfy8ZzlSvefGoLuTLoS9JUQ8vedu870cc209zgq7vuFWH71hg5G+Rzv6PDeto75jDOC+PlZCPM9lAT0ZrLm9rHbOvZViSL6pkJM8MoESPm0mJr41H2E9PrrVPE+nzj18/bG5+wE+PiJq8jxUprc9f+8Bvf1BmT1btr+9dQVpPewSPb5j9f48XrSTvXUB2r2ulYi8wynxvXQeJz7KNNu9syudvrGgCD7AVis9AKkOPTG1urvByoY88u8TPrdaQb31FQU+1soKvv2tPj7lsyc+oGuMvrnwVD7H7Zi+hEmQvvsPpb2n4kA+scGqvhm/ub11t9U9IT2rvszi0Ty7pp8+QA5RvOKo1LxjLZw9SGa6vbLJoL2rEkO+RwD3vfiJub6Dow+95aFEPW5WPz3Pdxm9SIRlPSw7oztV3a69lY3Vu4QDc776Soa9si1zPnWvbL6ObIm9p3I2u3kdar3qHDA98ymBPEKhLb5hmI89SNgnviOraL4asQE8dkjgPXVog77XlB++MgAfvZEnIL0Jzz+9b0QGPizTNL6Wfq08y3M0vlk2t736GMQ9vT8pPmRXVD0afIM9rkOdPdBpQ75CLe69bWj4vWpeszpeUke9mf4Gvfuu17wX3/E9FVa/vaGBfrwxUL+9NmPeu2eaI77KYk890wADPpgo2zuSUfs6IO9JPkE0Bzz768C8q5hGuzdO+z19hAe+BhRWvot6Yj2oTI++xI7BvF59Rb2/dZy98SuWvsQyfL6p5j67GdXgPY6DzzzxbmG8mYhRPSaZBL3sRPm99Vz7vZ3orjzpC8M9ajg9PVDzI72qu8w7WFflPRL3XL5BLi2+1DE6vZviQL4U0ru9PrrNPHcctT1kAvk8iszaPYkShz20Q7y9Ug+UukAa7b17V1i+QclPPvy0Bz59gPo8zqAePvXLqTyxU0m+RCjmvG8AGD5fbAQ+JQYRvlSV6b39vac8bAEwvezj0j3pxJm91mPhPYDxDT7Bqjq9a3IxvYCa1L2Wl+o716xfPSJ2Ab38KS26sXX6u8Qy1b3J1MO9l8qpvOOD/r1B1II9A8wdvrcWnr0jD9I9yArZvcmho70hr0K+wRXFPSH96z1n9pG94zJuvqk5sjxApso9cIIrPUSoRb4wpPs9G+uaubLmOz5Eh2g+yqs8vfX1Xz349eU5l+YJPq2m2z1+Z4q+i9woPl0VV75/Mwq9LMCGPOkcO73nKuG9aqT8vU4LHD2vTQC+5qc3vLWTZL28SwI+TUe+vcqBeL2zIA29pzB5vUlKO706Has9kn7zPbDXRb4nQVi+7corPpm5mbzz1v49KCugvS//Dj0gaGG7PQeOva8TQbw+oIy9JAfNPN44oL3QUoY9h8KoPTqdlz35oTG9oEvXOTzcDL7IUzO+qugePSFfSb12wUO8jzdIvbLdVr1Oh9+9F50ivXs6SD23NrA9UOenO3pRGL3KvTI90hL3u2g6JT5c54+98n2GPaZLqL20GoE96ogxPWJHwTx3s8E9UvfbPZJSYbyJ96s8PUacvo1h6rwyodW8yK1pvQzuXTxTx4W9OjrQvTlM6j0PaQw9bvQyvmVX2r2Golc9MDbpvP7hIr2JCo+9wa2sPEgZkDproXo9RoUqPSXKO7wMlaM96qFCvYrpaj22C7G9IvmYPS2j+Dxf1809iewZPn6N4TyhYgw9Rs4FvLM0x7s3amo92MSKPYHK4jwrTeI8mXxPvRYa6jwelAg+MPHkvPjLaryw1o89yAGMvXLrkD24dQy+MqzevfN/IT36sB09mcCRvKnEND2PPME96amAPbc9jrxiocU8npyvuZbQADxRYCe9h/rEPa6eJD5ZIZW8MWvcPaJ01D3DlMi9C2gWPtfEEL5UWk08Fxf+vTTyKjzuag+9XD+yPZO3yDzwpxI+fWgyvWmbezw0TLg8rg29PQqNBj5uROy8bCW0O+RAIL35Vvi9qLK2PDNGIz3G6Gg9gTG5vVk/br4WFyQ8XnC1vbXH47zrTvO5Af34vbo2J709yrS9T3JJO0aQg72wpOc9brUBvrG26jwyX9w936jPPOLTAz0p8Rg8ZR04va+m0b24Gww+0MAmvGdV4Dz4hxg9rzwIvrRa971Kzva9aMSEPdyY0z2//gk9PO22vMiGozwsufk8bO/LPQt2Q7420QE+aSSOvQ9ivj3kLYQ9BACfPTp2GT2BQ5c8nMlDPcaszTy8uGi+ur2CPfnbWL1Bmc88MBBvPXCLbL0SyOW9evH9vfiykD3vdyy+O0IDvnOCUb1BF6q9YgLrPO82rT0ndxa9cxlFPTEOBb33/cg8ZbuIvrYpUL0oRpw+u20Rv/3Lmj5ObF++Jk3LvYXql75fqM88vVl7vnxqE7+hcLm95Sg4voMRyT0q/1s+op3dPZSiOr49SwQ+UzC3viRn8z09UGU9kLC5vkhaEDycXmO9F4PxPb82W75fzWc+bLqbPSl3WL433Ge9EkyhPEtRub7q4Yg9QmKRPZfDs740Szs+d0Bpvm7gOb21P4K+Vo0QvoI/Ar6YQoy9S7qaPpeuDj45/VK+Vn5wPnY4pr0ZTP299HUZPngwBL//Ucm+2yyVPDXOjb6Zc4a9k3OSvrAA+DyhquW9gLi9vLyaqr7XPDS+/awkviqgjDsG2/69Fyauvjo73L3ZTva9qIRVPbo+9L2myJY+p9uovvfUB74kjcm9E4eMPaGcir7fbRQ9HD45PvLtT75foow9yvECPjMVT715Riy+Sp3dvO23kT2sO2k8u79tPRGtuTwMzbq+Q3HWvOGFHb7XQUW+OQmUvnxNxL4iqfG9Zt8xvD+fTr5qrf678Jcsvg5RALw2lkO+hOqivbP/M74JFhY+kSqIvizijjuz+2q9UueYPTLnwb5Cfnq+ILQmvpwUJjxKvBa+yc7ovTKoHz0F6yE+qDCgvEUjjzw1Rw2+t21aPkSFDD732tq+FkBpPoSyfzx85nc+ftUkPujacz4MQv+9WPOwvXTrlT3rPim9qgKGvq1hnD04n4u9VrbmPaAai76hNkg9jtk4PSgWMb4wuQk+N3BYvaYcg76c8tQ9A6GjvcQVTb2OBro7r/EgvRLMqb32luS8oy5aO4A/KT76q/o7SDm8vSa2bz2TUZC+Z1sivv3xIb4u/VG+gOIlu86M5jyjkMc9027lvUfE8r1nmX2+z5gqvmFh1DrGNAy+CuZHPTmKUj1ng1k9qCfWPMgrob00dnm97vx0vcLw3jzj4368ZDp8Pay0Cj6HubC8aHbBvXkbDb7GXZ29PbVtvigXn7ttBP89nNKsvVFYMr6UDGK8f6rnu0wBpj2U4SI9DjHOPSLniT0Kq3i9Rtj5vUjs1j2cMcy8jsAePkasVjw9ymA+5YWSPQDdVD50hQC9XNJKPkITXT2oEOM9/MJmvnSEIr4x96U+LYanvCoPcj5+Zhy7GTxyPTO1Jb4QZ4M+JUEMPcxfO77IEB297KMqvT+h2L0yjdw9JGMsvCfnMD4KSba9WFITvubWTz6u8As+7XBBPgifZr0fapy+Q2uKPkzaVb5uqBo+l7pwPrAmdr7PoKY9S8AFPtSpV77oFJm7s3O2PXsNQLwLJES9/7fRvRwrvrytrik+8bsavjQPZDzEFYy8F9VSPmRxNL5lDam9NuPDvZ/4KT5kW069+37evQhppj4jizC+OtzLPKPwSr68VvS9K7hAvMbR3Tzwmdi97Nn6PMAffb0vJ9Q9ikEBOz/zmr0TRfY9jPISPRkfpLvKf6g9SkRnPRKFUz2Tk6Q9DQLAvN5DlT2+IzM96/v2PQABpj3AbIm9n1s9vdY2BL4Do3291nW5vaIz6jxWowo82FsIPvJa1r0a3qk9TZvwvIa6JL0Q0vK8hU8IvRM2qT36e9y9z0SNPC33TT2okoK8pDmbPfmUFL0E/OW9VUGCPCQNxD3v63u9/hQdvclG6T0/hA69Ia0CO8/v8jykKxW9DPPlPcKLB7u9Ooi9sRs5u+8lXbyr/FK9VoS4PQptwbw/iQQ+ZladPaj80L0Z1n0+2JyDvnClTL3qTYe+2jOrvC7XZb19bCc+g0vDPEx5uLwRO58+g4fnvp7CwDw6Mm29LmUsvrr9sb1245A93waNvazaEL5SftG9YDUvvt8FAz51tFw93TEivv50krwcRYu+CI43vr4zbL7dk1O+TznyPET+D76UAZw93/Hjvnom5b2IZrm9uUP2PcmPFL7xdtU8w+tuPSW6OTzxpji+wlJNPG5wkTxJt3m9h1o9vbeFB75VrZE95FITvsJj4D34Kkm7yiySPfAPw75iG1q8GoONPTUtab4v+O89fYIMvq4vA77RHHG+11OnPcLUjTzpUZW9f4ZpPVF8IT3HtJu8sf8qPekJnrwPfYW9DX61POh1AT4jYGy+yvEVPeR6mj3NiLA7HivLPclCor3AIUu+SdC7vQkWizzp+Ma9gZEPPr8Hyz2THxq+lLaLvfm2yL3YGgc+8YhuvcxaZb5xjwa9/1kEvmOWmL4OZUu9uqU1vmEOzz01GYG5t8ncPaLwKr7FODG+WZIVvjv+Rr0JrKk8WtG6vWihBb7CtA++VaaqPCBZR73Ya6m9V+hjvnE8WTx2Ups9S3lovc9/lj1wmWg91wlXPX1cAb6bbqu9XgGzvU3DKL71GU6+rdIzPKpR5L3F/ga+44MavUR1z7tKFx0+Zy29PekSGD5N3fE8YX1ovTBZXDzsVvy+HYyIvH5BoT0cAMY9++APvjw4Jb5IB3m+CF02PedJYb4RA0U8zNQJPkz4Tz71Wtw9t/QUvtWhFT2dCqW+ZSPKvDn3JD5cRxs+wEIhvjT0YT6Wu648qpwtPbs6wr4WcMQ9lLjDvv8zj758cwm+a/KEPkDoJTuad7+9ivzxvKkah71tPuI9KrdaPmOvuL38we89fCTKvZENEjy+7ZM9/P+cvXhehb0XMDe+AuIJPqQEub1mqVQ8HZ52PcJPS70+FVA+jQDWPV5qDT5KHEQ948WAPg1qbL5mBZe8BvjqvHtveT5sGMa9/JmrPYoZVrzraCa9Vk0iPjOfi7yda2K9a0flveR8Yj3YjpC8aZ/LvP+GzL0X8Nu92Pneu+jZQLyYsZM9Nd3wvUfiZ77y2CG94ZKBPL3K9r1WhiS9zE8FPpd/6b18xtK9ZwvZPYk6Bz4yDjq92vVPvnF4eT05uyC+cWdfvoawGz3utxe+qyTQPfuAZz09gT49aa9/vQbfH750BX++VinPvVWO+TzvL1G+JIhwvpbxaD07TW49TG8EvTgbNb5ju/a9+cEBvN6PJD5USqa9BgfsudB1nz19Xwk+1XoYvoRXA74rwCG8Nj9qvqYHrL3VlcE7QAc6vWh4Wb5qnes9SX4lvlkW5LxSD1U9hOEMPnYHBr3+E3c9rKfqPXfTtDtUtwO9LhySvZ3EUj18jGm+9rxjO9q/Hr1LR4k9F5dfPq+fjL2GKGu+UclcPCles7xFmnO+Yi5mPUUyJT2hOgO+tNc3PQhqgT1WfgI9ScbEPdIgar2lm489ety2vbbPjL7TRY89F77KvdrVVj6Ti8u8lGfIvFjWNr7mMjW+XTU7vn6bFr7GqDa9XW0LvhtdNL05mBi+7089vdJaA74dSy++Jml5vnklmjw7nQQ+mc+UvWbBYb0BKRY9vFJfvQ+zlDyHnVG9Z/S2vd2Pw77Ob52+FVsjPVn8Jr19way+S5u1PBiOsb37Sqs9INJRvXdSKj7UgnU9Jj4kPVwTLT1QBF09ZnjGPSVOK70bNio92AtsvrsJC72aJtg9gkUtvqnH/j3ctv+9AZMivp8yLb3AKVu9QYANvg/zSD2jLWQ9rjSxvVhnZb6rjqQ7BgkPPuxivr3OJS2+OZEqvFMa2722/iW+zbVJPezHLr7CY2s9ImOqPIUa4T1NBQy+01AZvixkdL76kQS+gn3du1//7L0KiiO9YyQWviFbh72cC3y8eFgAvsJUoL3CYsa9Hs+gPYSvWb2xZyQ9Ax72vDolMz0gqYe+I974vaXlgb1CYT2+46NcvojqXj20XPW9B1QIvkcEILwvyfK9sryDPGEnrTz8R0o9J+yNPXrNhz1iaEy+/1MZPkQaPjulXzc9EHrRPQJG8D1YX6G+AlcIPug02rxs5+M+SMS6vencKb0z4+q9rp2qvle28DuvM2M9CqBEPtTRZb5rEtu8BNUqvhrH8b292WA+BMqAvnDTZb3T2CS+W7srvmk5LT4ED18+R9+8Pn5FUb5NpRM9kt8/PKQ11b5KIgO+4ZK0vUeDl700wAY+QvIovnMK+7xBlMs9oE+FvldMKr7ogTO+7V3APZn7DT47zK49gqxeO4LfUD3rGo09ppddvQjicb7sjZs8U65nvmyLDr/T2QE+LMc9vcG5Nb5oF7o9InM+PT7unry+zxS7K8FDvqyyWT6Pc4Q+5OJKvajatj0hRKU91RiVPJvzhz2A6Mm98zKUO5wtQD0+uB++t4WRPQkch7ogQSG+jKbEvfVmNr15gTM8etGJPRpn1D1x37a9SrqvvbSZzruQdgI+yrYaPsGiVb5M1yY94xlkvT3znr6xYSM9Nh4nvhCXDT3PRnS9WqMEPs4WDjx83/G9Bzhevrt6Gr5d3Y08WOHLvLZHGb2opZA8hQBUPREsA743Dgy+S16svbDGv71UHxk9WdR+vVILsD062Ls96MfGu69VFL501yq+YlSpvOmkEr72nXy+CW4iPqYBM74m6iC+OWVRPfVCgT01z/g8cqwAvYxfmj0ncAG9wJpyPXT9FD6z+CO+KtwVva1LC7vfZKY9ZTeUvhT2bTx5R8m9sTx+vRs5Wr0R49k8dOnHvUXalL5AiAk9c8Agvirj9L3/u4G9v0sJvuOnED4nHX+8z40VPnevD761jDS+XoqNvdm9Kz5VAE2+lB4Rvcmngr55Gji9bZSDvZOdHTz9Rce+4uMtPfSDCr65ypc90clMvey7ML6DovW9QPVpvv42ob2hxB4+7Eg7Pv6zTb232KI8X52MvePKk71cVxW9HOhtPYnYSD5cUAM+08gOvqQ7dDz+90e+0uAMvqXRkr3G1k2+EGxnvvf+GD7XEfu8KBqoPfF9yr2BHCc+1+DmvN9rdjyaYhS+163gO/7SkjxedK09AwYuO0A3lT5+0PW9BQVLPWKZcT6qLhe90idVvn0M3T33cVk+NwWzPPvXnT29mJS9xjffveuXiL3LGgi+5n2nvDYluL3cAUG9ayEWPpQf87xztJa9LfaMPs2BYz1Abx4+i2SVPi6juz0hAnq96dVevoHFi7yqpEa9OwWPPYSSgT5JdmU+hyLpOzlWCL4SxTO+srLzPDudNr4W+yU9vdhGvgEeCz5QVDS+TgJ2PXwl0bzM/bK9KcaOPesqIL5+0UU+elNqvNW5vz06Qxe9MOpCPuv8dD0/gkE+O8K6vaQh+bxCAiE+924pvjo1Dz6NqyM9Fb29vQcB6T2fBa29kJVFPqRu8j2Ty/S9tOQ2vkX6ob0BC268OLLsvkVy5D6egi691H5oPoT1nL7UaOm9ErUUvpSQfr7Og8C8/sYcPuF49r2vCEu+JuwuPGg2yT0J4u28k4ZQPqo3lzzlKlu8yRcMPnBbY77E8Wu9oU1wvnKa/L3XSTk+gOmtOFCw+D1RhuC8FEgTvoStib68/aG+ypdovnB3wj32CCO+u0nAvaC5YD1kkUO9hn0bvhFnIL6BRjC+P42BPPLmcz50Fwc+L8IEvhRH7jrirHC+a8WZvkcOGT5r4Zi988s0PRMUPL4a1Cy+4VqMPW1ikL7d7/Y9LFMXPtBkET2s/dU9ZMLyvZhfsz3Ymfg8VZTFvmM5eLzhtOm91VcXPvFFiL6hTwo+rncIvoHNZr2VbUU+ueDtvYReD77wTyU9mGuUPIwUtT3jI228mVeeOqjPRb5iFXU+eEuvvfJTkz4MnFy+Xo2HPD7UoDykYKU9R6ncvNY/iryroQm/+t2GPnJgL72ovZG9TrKGvTRLOL7WvUG+iJXLvgi5kTzJtcU+OyzhPDV6hb7brEY+/dtFPjYRo71alFe7Q3Qyvp2ZeT4TaRQ+Oga/PUz4db5DHK6+smIYvugD2r0hEu28Unmlvj02hz7iQAa+a3WevCKoHbySQwa8ZEm3vC5cdD5Arss9ag09PZzYbr1My609euogvvE7oj22igY+wAHVOw7UD74d77A+2M3DvsNyQj47ITa+PSI6vziBoT6KkSi+XeQLPhzLDb7aSNC9pSwSv5D1HrxA00w7g7DGvVRzY71clzG+8Qi/OxeSZT2lAdy81JHAvVuU/70w92O+0c72PRpeeb6OiyM+7xkHPvZDGr7BhqY+0lFWvtwYLz6ZnJK+FWaAvtyQDL6wCiU+z4ZevlUw1L6fV/k8DvncvfVJNj6PtmW+jMGwvWkKb74fsom++GU9PRirCL6HM8E+iW0GvgZWPT45L5S+8CPtvdzLzbyIBIg9Zig6vvJBvL1ec8W9nEDxPGonKr7LG9Q9SEdOuyColz0MRE6+3K6EvfjKr7m+w/m8pNcDPogF2L2Ixje+Y6cBvWdSwr3S27y95h7dPbypAT1LSBe+qT02vr+2ar0S4ys9Uiu6PZjDpb0j+XG9mTSBvq1aIL6mK8q9IsGavUBEer0lINA7/q90PeszIr2DERm+f0zwvbQW5b0FAaU9Fpu9vf0nG77lp9C9hsk0PVevn70h0qa8TEfCvNb3vL0fKly9PcqrPeSKlbxVQsc8QLJxuwHEU77xT+W9SwPXvSPF4b3mRBu7WQxxPXgLJb7H9oO+swwYPW6aDr7rweU85bafvBYWnTwwDo89VFeuvZfr/D2JNNs77EggPX7dBD7gsKY9zkmivkkfrT3GQfO9bbftPfsYWL245zo+IBJVPanMpL6/4489QSMSvqKxNL6IfJy9oXwvvLYUuD6PjW2+9ULhPD31jr7KPsO9xwqhvQCGHj7mtuS9V2QwugMBhL64a6q9S3eAvbwmPrt1Gde+SkLlPDv0gryihWE+6NsPvh+aI776rBa+OF6nvoV9Gr48NYc+R4mHPRP30r0pIxI+/zgGvqCanr17lci928oJvgpZXD4jJ4Q+Irnru8/KCb4Bc5A8wyXmvOAbg720M3a+gmiWvlDLbbyb0Ze7d/43PZdZO74mhnA+7zmBvi+mOr3AAww+MBRLvtlrPj4uqp07jSYMPsSLib5erZu8J1g5vunBB75NhnU9YtPcvb7uEb798x0+izV7PXPYFb1BbRM+TS33vRxbBL3xw2C9tw+0vE0q7r2Ky5Q9xcsxvqIW0Dsv89i+GvyZvr/Vk70c+Je+qKpuPnEIDzwtzJs9oLS5vmYRJb6HExK+/zg1PbSVVj4tRO+9IVJXPRYp8j3Rubc9yHmRPZcfjr7MNgS+ogLKvSyeAT6Bm2+9hPkBvTHWFD4RCcc96Wv6PS+Emr08mDg+ScgBvvaBFrsAxHK90jiPvdr8gT1V+/89Lh7WvZPeWDyS75U94z+1vRprjD75yEQ+bs4NPrPPOzzL4v08ZAI9PRntHj4+fdi+Yai8PfeEvLwn1M69DbYbPPadZT3B036+KRFRvt7xzz1XGse9AE4EPvB0FTxZPe+8guD8O5gqlb3z/dE9w+rIvbdvTjwNMY89+alIPgQOa74PN248OnZqvhHCpLyGAcY8/i+qPd3WeL7LNyK7co9SvkMerLsjFR681GFXvkJxtL0EZLe+nNWpvT8nsj21w1o9Z6zFvWiUvz27wJE9gb+WvR6MOL2df2q8dnDqPTLSSD2ABry7IVcqvbID3r1EBYK+jGqZOxNS9r0J/Xq+q1MZPfxahjzO4DY+lbM3PKoZIz5ielO9jWaZPQsSO70UJ9g8DgdJPY5kODyDsYc9ef8wvqHoabuikw4+X9RKvZP+Kz37JLa9+gByvsZNiT3TQZ69Cu6eveL/8Dvz/+o9lWG/u1ybeb1xzlw9acMGPjIKnz1CsdO9JYnDvOOyn71ypfC9eAwHvSP/4b3gGpI9Oug0PFzdxj2PEnS8WloHvvnBGL7JZn2+UagTPcRANb1cd1i8TKCxu2nPgT0gCoa9fY47PQ7IU74vNx68Jw+RO4UWCj5LTTA9NWlsPYWL3L30/Lm9Cz1TvTVq97xMJDW+gin5vTW/Qz5foY28wKCevT13iL2gCXY9eqQGPugtorxZ6b89hNiNPYyS3bv0EVK9uJG9PEFOoD1xfLe9I2FFPZXqZr5CJok92UuaPZOf3b2cboE+Jcp1vQSVV77f4Mu9/nu6vYglv70NnkI9ngsFPsj4hL2iOyS+nOMaPQg5FT7m8dE8Cd0Hvm8ycz0Sz1C+5ZChvkvbeLz0CxW+cjQ0PuwYp73OYEc+uA5Cvh7aKb6aPUe+yk9fvnmYMj2BeAW+L/tAva5LxjuP79898AXGvTgD6TzPFE++S64uvXL7UD3dKyi9WpG8u9ccUT0YdIU9kq+TvdAst70dGr474ICbvjG1Nr6FDj0+I/L/vUiPPb4JMsW9t0QFPIXtFz5S9lI9S+OoPdga7TysJLk9ijmuPBpqXr50I/G8egmevWm5Xj0vX1a+8qY4vckXWz3ObYK9eOEVPt3eDr5pSKq9CK5NPYXAqzzKHPO9A1C2Pb4dxL2Oc8e9da4ovh9AKjx+grg9eSOxvGJLJr6sBVS9BrQavlhCg72dk0+92LLtvWh/jr3srwU9rw1pPQ8Oz73CG9W9k19AvjjN0LyRG+S8B5e0vbq5tr0xXIW92ruvPKDZczxLS7e8jM8XvizL5b1l5yO9V2VDvcG4RbxAovU82wrLvFm9Gb3EPqe9kd7bvXyXer5ZsPe9TKKKPJ6/7L28IcW902NyPB6ngj1+kTM+mWI+PTy4sD2mNC49avUFvp11nr7lSlq9qOsIPuiKXzwHqa29cdoDPe8Nhjpx2rA9/EXOPLp4ETyFaeK9I+bwvcxq0Twv5hc9pavtPbryMD2uN6Q9cB4qvRNCB76sGxG9JsK2PQ5N3L2quEq+7/izvLjcxL6TKSG+DeoJva/wuD3z2Iw8Ws4UPHTmHT1V8BQ+6OgnvCpkkjy/PAu+wN+DvFjM4j0B5Pi9jRsVPlfl6D0OG909DpW1PUwl/zzRr6G9L7nsPQMZ6j3GZuc9KTRjvlP4pT7aflm+8jh0vf12E76ORJm9fwAbPT4RDj4OQSi+N4alvMOLgz33ilm9w0wgPcyHrT0fQoM9QBiyO7606bxd3R2+54NOPvK3WD1uFQI+IboRPtdvkD2pjNu+FN48PqvN17vZq3E+fatvvuvwQL261eg8CoR/vtsDt7zXK2M9KcxKPcSKZ75hfWq+D1IBvfzY9L0sjGc8s85IPTaJiD1g9ys+0mqCPNEIfT7sZrE+QkaJPqB6IL5904u9+zWJvTfMTL6p8a69nI8bvSHC9by8kOI9igrpvQ1kWL2pim89+8hQvmATTb7JAto9pvxIPuL+Qz6at0g96i3AvbKiNL54MxM+TJH/vF01pr1EHAa8uwY1vskWCr/CTkq9tKQEPnoVxTye/EM+w243Pm7wGL4R6dS85Eyevv1SBj5FYx0+V9zIvVpUjT3VDY88UsQ5PQZttjxohCm+irjOvYkwfD05Osa7eKYlPnulIr5xwmq+jQZ5uBhxGzyHOsW8zT8qPebbej3CiQ6+lqY+veqUEjmRXv27XIPEPesaLb5jXTm9uJMuu9WYOL7bBQk+sJHfPMuSkj1LQaG9DHOvvO7h8b19AgO+DdspvrDeVr6XarU8X4MCvkEokr75Ge46cxLOvLRLF71USdy9uJEsvhMmIT5kWDo+ww/TvSVlCj0OLUm8VcMjPob1xr2psjW+A4xwvJlWWr4HEZC+X0l/PeJj2r2dgYW+OcbLPXLtJju8MpM9nGCDPQO1HD1Hog0+1pOcPRDH/70T2BQ9lNYpPRruAj73Vei9fbK7PWBrnr1iBhA+cD/AvWQj7j0BLqe8199IvFd4xL284xC+qcq3Pc7rI72dTFY+3KvJvfP0kz1BsM+8+TJQPg5KXD0NtaS8Vt8WPXPlqbsgWfm9wgzZPfywIL23WxK8yaCHPcMvOz0Y+N89D12dvFnlYDz628S9ntGxvRR/Tz2JST2+owyCvWRikTsr2569hPPmPAhJxr0OOQE9iUaAPRGs7T2ERkw9gzlZvcvIjD00brk9xsv3PPqf7b1rKR+9RV2pvYtylT1IDPy8QpTevIaCdr1FF9I8rgxIvGPKujzSHZE9ulqqvdYPiDzfstq8a6z7O8MtrT3PZ5299QNAPcRUWL6nYMY9zL/iPKrgpr3OEOA9Kmq/vfGIUr7TwXI9FE4LvMJRS71DRvk9vgq2PYbOLL3Mega+3z6svIJFsj29Jia8nOE9vswM9rzG+S++vK2Gvr/eBb5Ypxm+RAUSPtADAj1+JIC7TM4VPE6FF74gwlW+OZs7vtY7prxfh5q9AFUCvmY/7b1UTUe9BwyHvfPpwLyb3xC+0ZG3vQkXUT1kEay7JWO1PGp9Bz68jYW9EWgEvrgUCbzeJdK99qiLvre74b0tQhE9WKXxvAaMP76lLmE9oICpvF5+GjwTuIC9x/YKPq+gtT0JeMg7DQOdPbZdeD39ErQ9vWf9PCJA2D1hlxC+iwlavS3MKz7ksPm9Ov5HPqEvs70bjlK+t8govo6jU76xhmw96SUdPsf3BT50bxe9ctIQvXuVP72saBg9pPIwPRmnI76Hcu27oZQLvnXHW7540C29FNRPvuf8aT7pGxu+KQFZPkACMb6cl/u9n99Xvgd33L23Kds8MhBsvXJ/ar2ybQy+E8cEPsQ+C75XQ4E8EZyOvuWd1L1KScu8nI6zPTwcFT6GtAY+unBRPZBQT73+GsO9jfYAvYiwg76RbKq+e3YvPuS6Er6H4VC+G5cQvEIYQz7QNAo+mmcFPTfQND6U/508rGqJPQ/hGr3cnQ6+FA+SPBCtBb0bfHo9AD2WvcQ9R70/MWy9puG0vVsacD2xHYW97/5CvgGaDr3vsZ29HiUEvZ4BAr1v9nY9uI2JvT1M/Lzs4gO9DyAiPZ6zGT7CC4m97lQaPVQqT74a6k++ZweNvXE4R75cAxI++KYivXxtEL3AtxU9BywuvlTZ670UwBO+hOoHve1XB77tN3y94XBwvcY6cb2jSW+9MFUFPZ0uBb55ytm90gTcPYyrvr0VO/k8SbuhPJtZ7r3KvjE9UszmvZakAjx4CVS9P7WyvKFGiD21Mo+9vNJlvtSfrz3RghI9ydcEPilAoz0PdRU9Gz2RvKAkM71vF0W+tyStvs3CB74FBto7frgivcP/2js4DWC9548dvlUS3LydN2i+E+aUPfqgBz5KO24+MRVTPZ7dY75cRVC+tEoGv54GGj4awVA9WRtgPY1EmL4YfN08/8pZPp21rr020mq9Vw+XPpkFVr4CG6E9F1B5vtwBMj72IMe9yBZHvpA4Wj4Td5K9AxYzPVyopDxC4Qc+cyNXPsfzyjwaNci9FsiyPOOVub2nbT++0Zc6vtQt/j0I3Am+NKPFvZ8DDz2o26u+6jFKPlF38T3vGIE+tku0vQhrdT0aRZC+WagUPm5ZBz4le/c8qAsdvktJMr4r87K9jds6vrYFsT4DIRA8yCnvPPp4Pj4vi5g8APERPugcSj3RJdG9+IwSvu9w4zwr/Hk96/57vRYtkD0pGgm+mRcqvUTXuz0Y0AC96K/hvZ8NFr38sxe+Fce9vUlS1z0erK69vV+KvTdGaD55NnI9aRKdPkYqJL7z7y49qeF2PuhSLD42qam9o3TXveeKrL5vc549L2HtvEeLubxOlJA85z51vZdADr6B2pu+gYcvvCNiBT5p2DK9rrSNvmRuLz7OXt49RYeAvQdCZ73dccq9QfUrPgtvJ72D9uG8DGNSvl/gC76bXUu+Dd4fvlT43T3qzEO+l68VPqHmDLwanfk8X7jjvMhjAb4oBFq8kJk9PjtEjL09We+9wJ99Oy6/Yr2D5Z09/8vcvNHTn7uQ4FA9/E2uvc4ODL1lao09ZiZmvRfCmLs/TEK8t4RivElYvj0mfzo+m+Q3PNDjKT1PDd+8226lPDFKlL3FM408NTdFvV8vhb1uE9+92XkWvq0AGr75QZ08AqanPCh4Mz2OX3k96U9kPf5iwTxwoIC9ikaivYxLar37S5A9C8OcPRjZlz0t+JQ6cIelO/h1sL3mUfq98QJBPWjU6Dx5hY89tY9IPSECVr0aS5w9QKVXPdOB0jxvqO09GmoovTVJkD1Bwc+9U20DvnBaMbtMdzM9g+CrPQ91K71m6/E5vSCLPaZrFD0EZBO8X5P3POExB71uteE9BN2DvnXULj4HhKm8JxrGPTsyrzwpiJy95vGEPdSEUzx/tcG9ZxZYvnSJ7LzRYIe9ZC1hPmqoJr7jTg4+igEDvnnF+j3jYQe9l74svhv2DT0tLUC+pRcUPo+GIj3dFEy84SeSPS2aD76JD469CqJNPronxL3g0nQ+lV8DPtFuPL5+8Zk+SyGrPbRCPT4Shgi+zt4tvogvY77qJ2e8E76Xvs/QPL2ml0I8fyo5PDUHLL7NZaE95P2dPUS6mr1xM/K9iip3PhKB4b0H+K0+wBjZPQw43zzetW2+pf5PPj4YM75Lu0u+OmD9vUjORL6D8cg9jktoPKs12b3G5dU9IEroPQ5rvbzYewc+GQAKvXEvDb1hBbE8jzQNvpfMtj18BQo9ZH4SPvtZXj1nkYw9c/SROhbYLz2pIaK9XFPAPZ5ZhT3c6S0+2Tt9PRJdLr1nzyG9UjkpPDCr5b0kL5y9673rvdmVLjttG1g9iUOQvJi0HT5mt5w7nOXUPWUgBT1aR4y6yTfDvZmF4z1YINe780uvvdNFbTuqGV68nEH4vQ4LPb5RJ6A73ix3PX6Dyb2ktca9EnTbvc8iQT4ORTA+QIsvPrr0KD44dhI8VnjBvVr9tby9TOm9u6hAvXx3HT6iGZc9p2S9PdT9zL1DyqQ95rHwu4ccVL6fUJ6+EyYfvhaPor4yUMe96ctLPquqLj7KjBo8mGlkvi4FEz66w42+rAJhvkEr2ju/7iG+WC59vUn0BD4UW3g+I03jvWE+hL4iA1i+qCixPQrPlL4lM949QtnhPFo5Kb6GAoe93wVAvg0uq72IRTs+6JYkPVZ1Pz3pfZU9ukqGPasj3b0JiDc9J+IBvdvQp71Qf+e9Im01vjx6ib0MwaE8rZL4PcVpMr3e9Gq9hVPlPba+7L08LXC9OxTgPRSfAr6uLeS+ooR7vhH4mb4iU+k9g9J7u+//hD5+ltA9yKD8vSkKAj2YPTO+v6ckvo8NF74HXAM+dR+EOWShir2dnbm9QDdmvcq0nrzxylc97LzRvQNmBD45TAG+YZbPPGY2Y70NjXC87UcTu/4wy70/8Py9M9anPaVIPj0UvUW99vfPPWAXZb4DiQ69Rj6bPE6D1jzDGhQ9vJbcvaPqhb2O9Qi+Grg9vpnx2DyBfte894BbPPA+l7wFYKI9LgW9PTRax7xn9/Q9YLUQPSLYYLyXMIK9UksWvpDzCz60SdA9HpWRvIh3Sr3PFgk9h4NtvTN4FD2m9SA9ERZYPX15pzwEm1w9JKGwO0fVnDytpZu9Hn2GOyc6or0WDfs9SFqqvTg4yrthTSk9Af3vPcS1vrw5mhY8XG0KPfSlRz3AP2m7mWQJPlALkL0kbv89AwWLvuWHND2Kii2+KDe4PYN/rL2pb7e+hompvcQSVT1pxOk97lIFPmjZJT4SHqs8fNemPTZNXr4LjkQ+LILzvRKHVT6FxIe+ypQSvGRChT0vvgW9+7KHPVahQL7Yf26+UwAbvqkhcL09Zt499N2XPTrLWL64PBA+lHoQvpkz6L09lJc9923WvRtYiD4wlly9LpqLPUr8PD7Xk3c+51IfvFTnfb7n0wM+apwsPsyhNL4iJSM9o1Tevk7vlz5ffV0+R4+YPs5YqLzQ1iw+xwNpvoWVZD3sUu289ZbiPb/OHD5aEaO8qgZFu40Kpr2aZX8+jb3lvaGcv7yC/y49CFEfvT3Hjz1etbQ8ErhRPaQZd7w6a8E9z4XLPHSe5719ETo+XhSNvTIA5D21dKM9C9MXPduFOb2GMJA94Gewt1bJJT3hl7E9WkmfvWEQ0D1E6Ja9zz2kvX9CLr6dEDu+s6TsvPFaWb5R7Ym9eTWyPA3wVr2X0ge95jGFvSBY3j1olCW9/9TwPZQjer2Rc2A9Juy4Pb5IiTubkwO+bZrYvYgPiryqMkK+SqONPLUKhzvIXNs9sbMevi27jDzSFaY9H4K2PVYYQT1XtYi88SIFPRRKDDy2RYu90BoOvjlFYLxBZvE8aorWvEIsFD3klPi87kkMPShTn7ySBsS91FmDPbExMLwKTMe88aYpvY0KHzyBe4G8e8QHvdSYOL1JifK9lF8QPi4ilr1+fFC8rTFLvExrSb1ZiJY7R/sLPsGhRL2Dpga+qKDWPGQxXDx4K+O8eOugvY3FirzoVFy+KHmxvYR+/7vmuXg7MHCRO9JcOb3uAca9soyIPc/oDr6k77i9Gbshvrzz1Lxgix49TMZgvVnNpz0hJCc+UV6qvd1/2Lw1JPq8g4/rO0Z2Mz0AoNA9y88BPo99q71TNGy9y2FDvve8m71CGcO9T+QJPLNM6j2/JwI9NEsPvuxmAL7D9E89vQAmvDHtZT2jdhw8h1IhvTRaOD3rPcO8MJIMviiWorzV0LS90bLCPRDai7v5gBQ+pbNovSvC1j3e3QQ9WhQpvcOPhj1WSyu+ZK10vXVxi70RQk691EMOvSV5kj0Dura84+BqPeL0cr28mbU9CD6Qutwo5b1bFhK8krKJvrToHb5oBHA83+DkvW6slT3qTak9cQ7fvdmADj7wql69WDPSPZdB0r1AiqI925VqvbAeG77yTkY8AupBPJvIIL7MPaC9clx+PBwHfL4akJe9oce9PDHB5T0J26i8mNH/vccrTj3UlLA9Or1dvUH4wz3uAAu8PIJUPEP1M74mCyK+vxJdvSIPjD3NKEe9cuOIvTjJhr3y/mE8KyYkO0/7lb2Bcyw+VoYbPbVPeb19u+Y9MTtPPCkiC74jHNA9svRyPrYaFjwiMqq+OS6evgaSer0cOQ8+zo95vLvGRj04ee895UWsvXLNt76kdek7mkA1vnmRor7CqCU+brQrvcfwsr6xGw4+gfGAPZFtrz5U6X8+jCnMvZJI1L3Umta9yqg5vu6AUD6f3Xm+WPPDvWRzoz1gFq29my8PPmH6PT1zlKy+fMEsvpHy9b2U60u+ZknpPU/GKD2Slkc9LJrGvUa4iT7tPK6+Cqzrvs+Whb7J7MW9z8gTvjaCE76J0JQ+DD6PPe3oWj7wbV69mdt4vlq21r2jjoy+LcYpvLhnmjs2ARG+mjYsveLqvLqMyuw97bIXPZyZ1z1+0RK+nXbgvIQXPz3Q3EG5BTfQPVjXWr5EWI68yQaovGpLEr15GSK8+5kXPpFIo72tBk89mVmiO1nyvj1ROJc89chlvsJVIL1tXVq+nWgqvq4M9rwSZdy9GI+OPVsJoDnUgTg8eZ/jPUkiQL14abs8THfzO2tuSruQF8U9gTAOvjJ1Bj6uh/8931Q3vie9AL45Xxy+lsQ7vvOqlT0XF789hvdUPWoRyL2YpIs81aGgO902oT0jdys9AFtavM1H6L2WChq8PnhMvoLT0b0jZqs9BGuTPcTWxLoAXMk9LiqQPPRTyz2Uan090LcevZDpT74zUyC9dGO7vYUaNL3ER4k+Vos1PRgTKL1nvPe95LbNPISnUT7mm5U9IyE2vpGkIT0OHms9XimzvRTIFD7q7Ua++KhJPXFxAD3y2BY+a7MYvnkgt72IZZM8MyWevSRylb3aKso8AzdZvocMIr79EQu+bvEMPt1Tsz0DTnq+oxYtvfyW1j1TeGQ9Ps51vmCpub0xuJm+fPHkPSZG3j0ia7K8IZk1PU6dwjzzMlm98murPf9M4z0gaJG9XvlKvdXqkb2GN+k9WbEsvd49Bz7ApKc9O275PXQPgr7ND12+6clJvqO7Iz64PEc6L45IPehJiD3jSZu9bzRNvlT7Kb5+Id29OmhHvlkeJL4N5CQ+RjiavlglaL2GRuK8nHsXPI8d1r3URiO+9dglvUhqIz5E4RQ+/No5Pqw+Dj4N5qq9qdSvPMKPr76xGY09XRuVvgxuDb5mGr4+TMR/PYKLHz6XcjY7JpwPPjFnzD6fGM09yQ6Tvd3wXj64sp++xlaUPTfUG72uI0q+CRzSvRjiGT2+vxA+GnZ+vqiTG75emUI+53YTvBhyGz6kmMy9iZR8PjwtOry/6/S9JAaFPfhIqr2CEiC+8mkBvTfbsj3BsSC+VOFBvgw6ML6YXdw+LIp5Pmt5DT5NgRi+PrDhvYlkGry8Kam+pQqhPZyzdL7U+vy8fQlfPWRSEL2pV5E8PjgBvsRj4L6louO9rZx5vnAoDr1GMle+YUAvvoW0mrwkTQC+rD4BPlfhKL1jeOa9WtyLvhKRrrwyBOO9HMNOvfJJKLzVp6E9v2EGPKhDfLyRzIY+6L79vf44Rj4vti8+RKwiv5MNsL7yv7G+kcWqvW6D1r3gXgC+ybkavugITz7p4Si+HipOvktbgr5bWZ2+zwIFvSclRr435us9Bw+1PTzCpr5dBw69ILcHPIQSDb4pYUw9p7oEvk8Nf71+Kus8Nxs8vDHdCz6fv6G+siPNvAh8zbrFJdg8Z/3Gvk5Xg73zMwE+chUXvhaQfj5zhYS9TaK/vIkT9jzS5eg9rtOivSzM1z1pujS+R8u6vO2iJb4q7rg9+JRpvmbemj5eXO29fTOSvo2aQz5p/T0+E1j7vaJ/Yb7O/tc9pRADvhKXEz6pJu09bL+UvnlwM74KFLI7hLSWPWRXqL4z7yQ81W+6Pa/bPr6muae+Z2sYPuRaAb1SEIC+BHzkPbn0hb73lOA9jyiBvkG/Dz6W2ny+RIBvPqmCmz5qJg6+YrPrPUc93rywy6K998BYPsntJD5vmH++yhooupvsAb6kZUU+g02rvBqAKD1f/sA+eXU+vme9T75zMIG+82eKO58dyb17yi28op74PaGQwzxs9Z49s3tzvUDfQb34ueQ824nsvXgtFb5a5gS+qko7vgphMj4poZk+2mjhvXPdOz7nQTG/h1IXvg2uKjyvkWi/d+oEvnalmT2oWFY+s2iEPW/pPb67ATm/BPyLvNxsir6MMkM+Eoaevc10Or4eLwI+9mDGPenKOj7B4JQ+y580veunjj1xOKy+ThTWvENMdz2z2oW9LP5KvjZl5TyfBKS9v4mWPQQF7r6I2Si+tAE4vnCeKL5m4329uaCzvdjBRz0BuGW+StckPuF197x496q+z3Msv3O9Br8hnYu8uw8Kv6pqND5Gh3c+btEIPtE9/L6jmnC+4pUCvTaJ271XeV69YjbZvfMTLb4FCQ++5YIxvB5Spr317Ag+9Q21vSbuejzQ05e9Gs3XPQKMvbzAL528wWdeParhHL0nIUg9t95uO3ymwj07QsA9xV4EO1Q0a72INY89u+jlu38WHT4bdMU8vbO5u/IHID2I1iq++LQRvuJ3nL2NZBK+sFSAveKdzLzMOZQ92QGoPNZomT3sqfQ91BKtPTz9iT1DqVi8awnOvbX/Aj5GPoA9JReGPMOebrvv2pW9OqiUvoFUcj0RMkg9fY5ZPWHDXbxEvSW+YP0PPiWu9z2keoe9+3H4vDioTb3B//o7SgRZvZq0GL4Rcdu9OP5GPcDaib3Ap+W7EIdfvNqtRT06ISw9VJISvT70Kr2Knww9U5yyPDlflr1Gpa0+1pgoPXz8472T/i29n23uvCLEeT5ah369k3N2vi1UaDtqxQc+Tjdgvoy2yz3nDoG+VsVxPckinrphAYc+3OstvsApTb6FVSk9CEKOOkOK9r185iO7pG1PvrpWgb5kxSm+ZdAYPhGBKz2UPye+zMe/vSDYKT7MeCE+VI6cviq+1L0jTNq+NfahPXRgNz5c5oG9cE9nPS36OD7JRDO+nr3HuzvwBT5gljo9uew5vaLcqrw+Uhs+AMJuvi+EVz7DS9s9DhPtuws2Pb4EaZe+b+JBvjxK3z3993c8Nt8ivTxLFT3pqDq+o71ovkoOgz2QBmY+JcvUOyOJYL4gypg7XwshvtDzdTyKGwq++wZWvmc1W73J2Cm8ZksnPlQcKz6shb49JPwAPmMMOT7NVcu8p7NmPtp6lr4QPKu9TpCLvnJhizxVqK49w1SlPCC9Yz2ujYC+NRC9vctnYL7vM5M+NMgsPeO9wz2En++9KEEqPtLUqb22b0K+KbANvY2gDb7lnHU++F68PQ/Dpj2qhHE+jJ8UPu+9/T1ND1u+uCZmPp/s6zyEWRe+GpfRuxxfoL39+hy+qOMIvXccFD5589W888oUPtQT573PPTe+irJvPRqthD7OZyC8nmnrvZ0khb2Vip++/1yePjdTZL0Pn/K82P94vY4uHT1f8wk9i/DmvRopdD7JM348a4VRPTZgijzolcq9NPM+PkFv2btbAti8GNRPPSnAdT1QyaU8FRmQPZTW5rvYW/66WByGPQHsLD2eLym9fQA2vnmZLbzAdsK7npIAvpxcz7vxddm9PLsZPPAtbD1TPKc92CfePR7Bhb2tHhA9HDAdPAvWjTwUAeC9rBvpPA0tLb1aQGQ9uo84PFKKbzysjPU8SaUDvW/NI7wM5oO77VeyPaw+673eAVU92qOxvbKmbzycW9a9pYeGPZfLAj4aYDG7xcCFvjymS72B3ju8YDPiPX1Hhj0XFDQ9841huzywwj1L9vm9h1aRvej5QbuU1V08zRqRPQCfh72s2xA9NK3LvKFmgT0gJKk92s1BPUuwHr2mevy9KYSkvJtsy71kRIE9U8x/PXS4FD4yH+G9IO7UPIuCfr3Fd5E9ZUVlvVOu771bVfu8pB96vW2dGb442W+8rarXvJKYGD63kKI89W2zOzv24D3pAk29Ey8KPqBKFzxkWCu9F6jaPZ8Q0b2l4W09Cos6PShRFL42/IS9QtBRvUU1Dr4F5vI7q5FvPKrHhT2/xrO9Zxiuvf42xb0y0Ly8UG7bvRWkFj4GzNW9eEzBPZ+O273X4JK9266TvLbrIrwbCxG6+UEJPI6VB76tpfI8ItLMPIK+H757o+I8RWqSvS0qpD2STnA8J8yEPVYhnL2VDOk9fDsjPRZUEL2FzP470m+Ovt67bL1ZcpM6GXcovE1ooD0l90g+XyvsvGs0rbxtN/s8TySAPQY/jL1kk/q9m+4FvEDxC7693w2+JCkBPQ24CrzsSkc+wMAePRJgzLz74K096qG7vDFkpj2osK+9xwsQPZmsxT1KUo+90VSzPfpQWj3jji+9BPt3vcO7Aj37IDG+lkD4PR2Yg72YQag92JMBvsu0Cb2Q8xa9lrE0vfx8uLvPkvg98UEZOxWJ7z1TeRu+arUEvV/BtT37o+K9Jv6evGCJ1TxXs6e8A3/WPeIQ8rw2Xda9MXMkvgepXL2LLSg9/eSuvV9Q4jwsgKy9k+k5PSaGRL1sHnS5tqU9PUrcG71qxQU9gmaIvBFHkTzD7+S8fX0PPYzE6L1RKaA8ct+HPTFyEz7i9NQ9Q6UwvfYce70/qM297fF9vcIoCr3YnEO99cckPlRN5D38/I093T+JPT2Qpb1AroQ97DEePdyaVD1QuZQ98OOsvY9nnT2MjIw9IqM8PcDXND1lEs69uX8Pvtu9AT7Hb9M9Q+39PFtFiT0z1a29VxuivNZmgb0XEQK9/6RCPNE/Hzz4Q/+6LEORvTx3sL32K2Y9AxU4PdcTQ71uYGU8wsFZvd3zhjxyjFy9BqqCvGpDmjw5TEE8PDGnvMIEVb74nRo+9Kq5vWDNAz06+dg968eDvrJSAT6TVP68Q8NFvQ2cEz4MAas8B1jivfIncr1J51+94/0YPoClET3J4gk+G/IYvswCH77VLaA8lJjsvb4Wub15waW9n+WHOpDlLr3PcTu9BAuJvaFGij0Kbj09HwzIPcqC4bzS2u48dZ0YvPsYPz24MAA+loK1vJb2C72+QgG9xQ1nvNYuwL5nyDQ95HxBPbyInTwVuFC+zm30PFz57z1Z0/g9FbaTPXiCzT1T7me9EgBKvSEdoL04oA6+UgUjPXVi3z3NmdO93FTrPaLfjz1bxA29ejyQvef0Vr6ECYY+5vYQvDIHg72CCc09f35pvg/pJ7691lu+7VO+PZI6bL4h47a+GAuFvpycgr48/kI9pR1iPYIRV73PD3U9h7wVPnvgGr+ZhIy9mm/dOcskx75YcMo9FUJIPK03sz21+ny8uHZEPlV7kD619SQ+Qnd6vrs5U768rJ6+feWAvjof+z1hA7++zykEPv9r+j0qKK09wEe4vQfOpb0b8F29E4WuvYUSXD5Qm9c8edaoPQiX7D0al2Q+5/WlvsGvlT6c5OW+jVGyvlM/G76/PnC+BfPpvTFnRL4It04+9iCiPkelQD4CJjS+0hZGvtn+ir0Sr1K+8PWuPSvL7b20G3y8L3qYOoh5RL1QhcG88XUmvRxRrb3e8XU8ylAAvLX9qrtU+TS+AbYiPhWByb0Fy5c8xEAFPTihFr2mkaS7uoRkOcuciD2c/Qy8im8lPhZDqr1M47M8DizKvb+rmT1R1yq+NV2gvT0ODD3ck1I95t+du7SN7r0jPLC9TbIzPfuI472tyUY8LNkivjOs8D1pDVa7n8RCPXnMCbxNGkI+06K0vfXG3rvWTNm8d4kfvrK9kD1sw7o9RTbuPUziAL5h9AM+LXH7vNvRkjyKFQk9kcumvZ876T0knXG9GASPvcRF1bz0RRU+qJhLPZypKr1y8Wo9v1OtvEYZqT3Ve2y9vZqSva6URT1ozM69X+8XPkdPHb7Zkhw+TU94vfLVYz1gKMI9uuE7vC7jZz0hB7m7nraFPQqerb1Nmkw95dCmvUzPqD2ycie+U+DtPYoWhz1eJLk9pRgpvT7Jxr1oIlK92x4NvqMX1zwjW1K9YikiPTfkvz3zVmG90jAtvYA4Qj5l/J89+IIvPiedyLwQWCU9CutlPVsLBr3qZIg93i5VPTKcA75nIQq++jewvQ+NOr5XyUM9VaIHPReK1T2ubRW+CREPPZ1VwDsozB88m3+XPOd5Gz53ooa97TU4PRidl7s6pdy9aEhoPSp2Tz71WIq9LdSfvYKR+L2Mm788Zlx6u6q9lbyyMrE8WtslPVjkqjxBIbO81Bh5PVhRSrwt0LI9tmnjPHx3hj0fTOS8tCMevr/O4j3DKfW8170OvYYSjD1Y40w9aGLivbzZsb3XDoy9HdY5vPW0Kj3QMzC+2XsUvcp7aL2ejd29CgvKvfm8Eb66yNI9zX9dPQ65qbyiCUA80Es+PE2/qj3qtRK98gchPbBzRD0FrI29f5nvPcUuzj1CTPO80/SpOrPC2712zFK+FPc1PagC9j2hJgK8k1uWvD0kqjwwhog9LuCyPBHSpL1sUlU8V7glPOqtuD1yqwq8D4IFvpbPaztOQHc9Lk0uveri0z1yai29SskJvOYvEz0EiuO8xohYumSzsjwRPQC91uXEvAaSIj5vHgy9LyoQPsJVPD7HHvg9kp72vS6DhL4O6ww9I579PWsRCj0+kqw9scNkPt5UjL3nx4+9XXoxvdaU47zSoXq9SxtjvjboEz2gIA6+/xUlvtwn7D016p48scQ6PklwpT0t/Ea6fJ6WPWMnI76o/0E+uRijvaxelT2V8q89bRAevm9Bpz2x67A7BtZjuujanL07MZU9llAHvpCbYj6PRug9bL30PaZPQ73zZBg+AhFGvn2mW71kXBK+5ykHPoh62L0HJb490Ao7vkMZOjzTpSQ+tG6GPB78fjpwlI+9/c2EPLGeyj3YuuU9kunpvXYJGL3pIWQ90Wt7uz5vC714tNA8R6cJvtYSAj0YuES9HUjTvZJn37oiCGq9TpHiPRRYjTyKItg9Ct6BPQCqhrwQ08q8BsgVvFhu8z1jrhC9NWGlPQTqTL7LQkO9N+VSvnCOQr6QlZq8k5HcvcxpTz3Qr2o9rneOvQq9Hb1TosK9xqEdPl4gWjyem/27bNcnvK9Ljb2jPpw98RuRPQvRCr6ppW+9cpDFvURqMr7mETG9Ab6rO+bdPL38qs+9vZTdveXI0T29Pnc9xQMJPJXfsj0AdSw97b9+PXm3mr2kxBC9/SP1PDT3lr3sqIg80HKzPfv22DyWwwq9+JtjPabG6r1eoyK+wLdhvYs6v754Wn8+ZuWJvqTO1D2aOX6+o37Evsn3OL5Bz7m8IEVJPpaPPj4Q9hQ+tISnPScgyT0detW+Er+hPu3Sh74xBeU9DYbevqbADr4QZ8E+ZSQYO3OPgj7U6QC+Pu6uPCGbcT7xRoE8jXWMPTpF1z2QE8O+RjsvPj7aj76ZQTK+J50jvsGhDb5ZVhk+Lm5Zvq4wRDwLglY+JJRRPqT+Mj44XBm+REihPN2aRT1ZNqC+NZ2RvQneqb6i5xE9iiWiPQwGMj654yO+N9ZPPuc1or5xOU0+el9yPp2eGD4O4jS9MKDRvTc6Tr0uDCW+DfkJPnLmh74difi9Z2qnPTdqgz3kRbi845HpOwPjnb45WsK9X0B6vhYstD3i2tO+/dEQPu5cJr6pjmK+GMKmPuqcCD5cB1W+U9A7voDnAT4lrju+X+8EPiPh1T31uCO+1hyVPbdfJL1bwVw+Xx8uvgQaHj76DdE9DN0Dvn+gp76EOSq9ScUPvnomY74LmCQ9CEXevpVxJj5ogJe9229CPiScdb03k/M9ZpQkPqSa2r2I6iw+dnDWvTjhFb4w4ns+RcASPjBURL7p3SQ++h5Cvr89gD1JBBk900qAveq+wT70dBG+Rt+FPW41SD2wT6M9NwpNvtLC+70Pof49brJNvax5CL2KcRq8TOWvPBlHlb2Q2Ja9HOr7Pfro5D0tTwQ+Y5QGvpf5cT1+JH88TMmqvUlCqT1R3ro9cYHnPXSHabodiYg9qleMPEBMPzxRpuu8VoBsPWi7iL0EYiO+/dzkPU9+Or409LW9M76UvZf5XT2K+XO+DudrvgEEhj0mD7W8RxeSuw3uFj323G69FzUPPoehPj19Reu9EFqGPToO6zxU4CU+BegSO4Ieqb3Tmo67X5KsvWLltjyqHww9Gi2KvBigsL2zuhi+f1nKvS1SmD3J4e28owpCvFkM4rzGoUQ9/miBvXczvr1jbgK9TJzhvNB6Pr2YZpW8zFusPeXcPr4wUVE9tmUUvS30TT7ssyS9aeXNvKlFIT74uvW9TlI+Ph24VD5fU3I9jh0pPC9Lnb3S3hK+1cMmuvcsS77/bmo9SuQ+vvWMWb7WuKe+wpASPToOnj3E88c8/t+AvacwLTuxWCQ8VVWVPAgF4b5yTRc+BpZJvhapsb3ap+Y9B/Zdvo+ECr7FbM++6Dsuvsso5DzzzoU+M1lovqJD5j3dTR8+HJ0XOzYTDD2J4Hi+rvc1vntqzb20+4c8a+dGPKxXlb3/Iao9POOXvdsOGr1uJy+88te2vAL/Cr6PZK28ZwBGvpXsKz5MwN086OcuvFeBAb7UkQM8GFFcvrAoor2tBKI9HTOIvVBvGD5FfPg9WWmPu1h77j1jBLk7ayKkPRbc6Ltc9ym8QbMGvUJgAr55ozO+nl8QPb8Yiz2SbLK9tC0PPulc1DwlOYW9Nsg+vgy3Zb3fn+o9YbO3vFVO7L3dyxw+BzRSvkqNhj0GcWe+1ZKFPALsZ775kVW+b18yvLofUDzl9pE8IxSEvmaJCb5LKPO997kePgiA5bsyI1g9V273PRf1zr2HkA6+TzycPAOx1D01VLG9u1gWPh+Lqb3HbHa9O5S1vTSIzL2nhPi9c8YJPpxWKD4GJL49bQYyvuaMdj2MroG9vv0BvhMeBT4upNG8oCKiPUFFwz1jxLg9RBVaPT2FqT1x2Qk+GD03vV5Xpr1gAEC+ywOpvWnsd7218Gc+jbf8PaBOJT4LznU+0rrUPSbcFr5PfNU7ykncPcYGF76W6d+9P4kZveeSEz3U7Ym919EVvvlJRL47gIW94Vrdvbs+1ry3G4U8+wE6PZXzer7K16++dX7Xvr1S2z1mpWY+wuoNvo23SD4eWJk+4ehsumYqd7zBp4G+Zh3SPfxPUb6B4D8+KCcWPcAhDr5W96Y9kEYQvDZeqL5uDCc935pEvhNPfD3nytW9QTVDPtl0P75aOsy+oT9vvmWrjz5wYSM+qHzvPa7AE77HRr+9Fpv8Pd4afb5+mm++BOs9vh/9/7vHQhi+1lsDPUfVaDyrEPi87SAfPuJEoT0ThMe9LqfePUuIVL2Lpg08f/PdPegWur1lD8Y9ClF5Pas9Ob3ILAA+cIe9vYpsRD146YA85VJRvcNKuzwkN4e8S0f7PSXRir2poZK9Nc0BPfHfYL4Hwg67SqbIvYBIbL1zDrQ99XOjPEB4Y71q8P88RTTrvcsIPz3sqrM936HHPV8wzz3dTSa8hnCmPPG3nD1+UDW8zyMzvl/Ztr3Dckm+9mpvPc+c8T1v82I9ImgzvtvNiL0+7JE8wKNIPRu3YjxQA/k9+OOzPaDo3b1TRNG9bei1vf4eiDziaNQ72K1ivTD6Bj4hzdW90JKtvG6F1j1fImY+mBGPPf3iMT4HoHK+XB+8PqLHwbxmlJk8rh4ovmeCVL0YMwi+TvoBvIXNaD7KUrC8u3NyPVeQ6j0llHQ8nuJJvgcpmz49o8a9AJ1VvdZ7Zb5ZV7c9XiU7vg6hqb384Eg+xYTNvrOjmr4iz5i+rywRvN9s4Tzxi8g9YtFsvlYHCr4KzaG9vvgfvhbDIr4zFXW9fzhGPuMcY77L0xw9PB60PnOmlD7V4TM+OsIDPmct6z3CZZU9amXNvYJG8r3R4nG+QMtXPbOHEjx2Dp48u+YPvgQnnj6yHUy+8jqAvj8ZPD7Ieoc++8NZvXVcAj52NFe8sUUHvlR3VT7d1QU9UAQnPB/mvj3KkAk+klN+PYAGAz2/gB89ZAWgvces/bwDaKG9aAorvnglaD4Su/I9DIQKu6JtZjmK8+u8yGH9vNg5171AzLQ9AeY+PkH9iDyCG169NCoDPvkl8b1ePrW8SiVkvmZMY70sBW69sLRZvf7zAb4iTeO9PvchvfJd2LzKWVa+vF2WPTsnsD1lGhc8g++4PSb4tT1H6QG9mUsFPaFUx7wAWQC+z1kovnnDMb76ft+94MlmPdvinL07BYG9tA+qvYuMaj73SKA+RziaPe3Gob0nRtU8R7abvUOcnr1PgIM9uLlovfmsxD0eVQU+zhyJPVvIEr6Lgxk+N6PlPenZpbxBkS09/dcVPg+D1Tz/yVE9idHgvIYVFL2eupQ9a+KpvX+qLb4qLL49QLSZPXtIIb2YoJW81bmEPSMecLvtHAQ8X5GNPYl8Mj4E9ZA9HWcIPJ+fzj1ePWq+4V6WPV0Be77ksQq9H2qePPQq9b07nEe9TO5ZvQtycj31/849WAY4vim9hz0z97i8u2SWvMdE4r0F4J27DdDHvZRFSzyZy5A8wPz8vXFJEr4bx42+wrlhvcIGez25T408GEZivW1QVL24hxs+9Ox8Pq0vHTxN2FE+2yPmPUE7urzS2l87V2qjvHh1gT2X9L09HKYmPJ92xT3ExCG+aJJOvPMtAbttJKw9oTZPPeXfCD65rg0+bQjWvTGALz767XG9cQYfvUDDYr0XaVq9czYBPiLAmzyqAgm9McujPMEdjb0O/JC9G6A5vZfCIr1sSVk9jloJPgzoz71KWyU9pxvavbYDoLzNJEC+GunivO8Q2rz3jyO8u/vmvVMsh72WOgq9g3jVPaErBL6oeg4+H/kqPoMiwrvRVrQ9/JZ8vULCFj7CF6I8Y6oavk8WwL2olZK9B9ndvVvU/70/ea48RfgaPRBqFb68kgS+IsocPsJMDj3DI7Y90WooPmbMob1wR/W9UqPIu3qyQD0bS5i96FUoPliKGDs85YA9bywrvvVKFj1UzQA+P+UXvqnllD3KRs89QuS7vA5/Kj6zwUm+WTp3vAbiSb55zYM9C/IGvueojj4P4Ky9cElCvlHTkLyVyVM88mvlPbpmhr5H9TE+U+1yvcPXDT2HwRK+0DFUvVJUAz43E5S9XWzovZGinD0YEMA8tre4PimBAj5awpa+9SZLvf6JK760/S2+xRIuPmIca77V/xw9ahXnPfnkqD2nwq67Tp40Pvx7Zr27M5q+tYAFPUuUsL5xItU9n9TNPUlYMT44e5+9hzeOPdMDmr0+210+56FrPRsFMr75HpI8+y5Svk9Diz4EZ5E9v2HlPUFTXr5Tlj+9mhEzvS5ezr0wGAU+KZPDvQ1SiD3pXAo98QKHvPc3MT46H2295AvfPVtUfjwskic9HzVOPTRmGb6g+QA+XrhiPLsbVj2lX3u8vsl9vZWfdT3RdmW9Kx3xvIOwFj5sjqE9QQL3vUiG2Dxaoz28R5S8vWviTL4nEk097qc+vb/YsLwi3g6+FYaHPGjmXT3pwzU99ZoZPAYPvj3vlIQ9mXVuvdAmdD3lftU9YIePPbtKGr0k0uG9LrfwvS2WGL4oLr69/tzvuhVg5LzBHeQ9oXDvvbsPH71hzM090d4PPgTAjD3qOaM8AFD7vMv4FL4G7QQ963oiPcHQCz29wbU9H2S4vCp14j0Xh629yUrgPYFizDoOb9Q9YSb9PAyT8T1Mruo9JYlIvmU/ij6nzew9xCEiPi9Rar26Mpk9yF4ZvKKEST59Wz+9irFFPo3m0r2AN7m9rC3UunnqIL4iHwg+SaAhPlyBOz4n6oA9++cAvihrJL1XHDq+SpzvvqURlLscLhy+QCEPvcVJDL4GSeg8xu0ZPt0/Mb0oz8W8r5NpPtXcFT5ETjq9Jgd2veFZwL3Kk7m9UzkXvF+s6b3pX46+9uZevl8O1rte24k+5DMuvTwPK73HOK+9WDWVvArcBz7N2vY9Py7PPhgR7ryjReA9exaHvq/TW72uRzq+aUniPWquKz07k4g958jfu99fEb5aVnM9IJImPatlRr62Joa+ZWgmvtZe3j5iMUS9WhzfOin5C77atCK9TtcfvBJ7rD2Z8rS9rESIPZb7Jj63uE4+yJ+uPqW6jzzKBuK8fpBNvlg31L0TXNG+FC6FvbRRCz7IzTo87seUPvLpZL4vp+a88dUHPHSWsT7Zlqo9NmsIPu84Qb7jgv89e4WIPTj9A75aJRG+K5AtPRtEsb0BWRe9LoHGPSIIHz0+QSE+vnTsPu8Xe77PMJE+vQsYvkUWAz41zB+9EcrnPZ0il74zGM29fIlzvqrQSb6SdTc9OPpvvpynrDxhqwQ+d9CVPhlG3L7gg4C+oa1Cvl/GT76N44Y9YKm4vkREP75omDC9ChOZPUShQr6AfFg+JncQvwlcyjwcN8K+NpqRviONmb10yGw+ZKs9PibFh70NSmQ91amDvPJiwD1dwHu+WrkZPb5P+7081Qs8KC88O/cDmr6VGoc9hBXDPIfjnD7x7q+95o06PgIB6z04FZq+OmZWvXFsMD6xk/G9/1Bqvm5fLr54EYy+crBjPtNWnb4UABC+W5aQvrQkVr40qMa9HPs2vsAURj4OZwu+bLjhvZSCaT5BQgy9LGsHvX6sQL5btvW93HxGvHU6Xj6EKY69v1sXPfRRgr43Epg8K/MSvaxa1r3fzfW9ToDYPU4DBT4im4K9IOpDPt1+pL6eu6w98JyAPFNigD4tR1E97Y2EPjDCNL2/kDI9mhwTPn1phr1mniy+1kraPbKUhT5ZFWa+/VtCPkivK72StQG816HMvQVVRD1LMoA+CK4kPvJHBj4zXoQ+5zGtvZ6V07wuCwO+lYp8vouZzD3QE6M8HtnxvDTRUb5FTXI+REv1PJf1qb5stwK9u60iPTM6nD6Oap++zoWQvVjmP76Zu3k6M5chPkwxhr6qape9812Zvm8Y4jwcYKA+3plDvRVPLb5k0VS+rrgzPob3qj5iqYU+Z6hpPq54GT6os729v/QFvtQVI70Eb1C81s/HPaWZvz3uhoc+wPchvpyh1zwevy48PMiAvobq5r0Y4pK+tr6rvn/bQr45lA27KhnxPfbNHb76mA++0/ebPUGRO78ba5e+teR0PuurvL5hdym+FuKSvahMBT5U3WG+cOa+vgwzcr4bMEy9fqkvv2lPsD4TRxu9I+9bPjbvtzwNyba95u/wPVddOD5W3cc95gWFvg0I+T0X3mY+thMuPSaGSb4Dvy++JYOavBUt9L7Y3kq8rluGvcIJNr4d49y9p/T1O0jop71AnRQ9H0+svf4D/z001Qw8DJwwPuhYTr+zNh+/SLH4vi5rHD5ggce+xQekPkrL+T3xiqK+5xEuvlrsA7/3EbS+TP/Nvmx/CT14W5S+3IoCvyzXGz7k7M67QnV0PQZPmj2rHby91rppPKri+73szme9avHTvE2ejr2ejH09EiIEPndEkT0beIa8gFqdO1deFj2vB8e9/Aojvfg8HD6QpuM9lhwLvakcaz3Uxhy+OlSlvO5lg76QJBW9Vkh8vR3QDL66dIy97RbFPP2VsTonbKY84ZM5vgJI3T2K5Eg+CXWLve245zweFYY8BRvVPWgzTb2FM6y8FUBOvYGpQ75r9uC8uVNlvX58+T0tgaq8HC4WviVc4b3cNiw+l8j/Pb348jvmq9U8Oa3MvPBmPb0rrie+tedtPaod/rtXg0Y9LJ77PU3wBT7BkUS+O4NnPXE2iT05HAk+PIqaPaj+qT3CMhE+kCDtvQSZnj7SnAI+V1gCPtKExzztycq80kXzvWaTBj4Pmgg9wvPmPcXSqb54hvG9/XpNPs8Itr0gxRE+NaExPtPCCz6eNIE9/ARmvPH81TyLqb29yyu1vrHVxD0F3Am+9Ha3PddIJb5W5GI+629bPvrQ/72W4FC+sA0tPrtjiD6Lvx2+TbA7vrc3Or4h2bG9gcVzvBZOvL3ou3W+YImAvoweAj1Wk2Y+vYhYu9wP0zvZlaw8rYwKvW3qsz3y+jM+u8npPuLbcbvcAa89N+6mviooHr6ilzi+81fsPYZ9oL3pY9a6dXGFvSh+h7sy5LM9hGQFPdUlLz7fH04+yxuFvf35zj6pvfO9n2rlvaNzgb3535+8RYPtvRY2xj5hqME9aMewOywpqLwSIwI+I7Q/PlnkKL1CJoU+0T5qPdGZeb6GgeW+ijNBPgylb75/j5Q9F3GYPluDHb1qi3a+SCSaPCsO8Dx54tg9yCalPH8dEr5bQw49OcJ7vYIOLb5J/ZS9H/xHPSE8YD2WUFm8TpoHPMcDjT79tII+CUOdPvTfLT5saOM9Qe/BPIVCL73yzZa9ef3avceKkr2ilBI8Ka38vTBoK77flCQ+iDWBvv7Jyr2vdo4+nFC2Pot5I75Mc/m8Y2jkPNVVJL5SHGM+PBTKvWQQtT0eLu898FkNPupgAT7zkIe9+l0qPZUsZj15c3A9N3qvPbK1070EgWw9KOZIPstUer1x/ZY9V0/lvZEYtLtLwEk8R6icPbhU6T3G6kY94MAaPgWTgz35kpi8Ygc2PUJNkL2bjoy+1z3gPPjs8r3KzKy91E+pPUehwjxKoBE+ATWtugvKlz1u4wo+rQFVPqaMOz2K58u8a48IPefgND2ughe6JeAFvtZOfb4MCSu+Lf4RvUb2DT7oHqi3HlQQvVfRHbyHjdI9i8uPvBgwgD2GtZA+mewRvHLxezx1qxq+WZIPvhmhqLwkXfM9+yx/PVQbMj4+r4u9rpXRPNw91j36UKs9nRl7vXsB9jxQigc+26/XvUcZZj3Ov4q94NOFvVm8KT0TpMC9TRzUOm5Oxzzb6WG9wTOLPRVEo73fSWq9qgkbvlclNLpJ6aE77PMlvKBaAL70F1C8cdESvvDjK71Oksa9KJkiveZsO77S7kG9TSPsPMvq0Tx8LvK9XJWrvB8Vw70sZ5E9YlwqPiNlkb23qsQ9O8C7PQcM/j2Dmxw+KA8lvrTosT1Ya929atP1vXJ4CT0KOtk8a64EPi6LMr7ZThy9pECnPMYozbqIGB+96sS6vAV2ZT3BOLq949rTvD+eez17pgi6e9iJPejGjz0pKgo9ymAEvul8iz08pBE9yx56vSqlCryiJNg8l4LHPZLZlDxgOwY+1fKMvZ0cgbzpIN49KGI+vmE/gT4cqhG9ve8NvF1sYT2a4wW9t8z3u7YGLr3c0xO9eSQHPplXRL192ZC9eLnUPTvCAL4ihni9sEk2vrjnC7i1aiO+uaZMvcs+ozu/rAi9Qb61vZMczzzUNqY9Ut0FPum//rjltey8KQMvPkSIvLzjaBE+TcAUPkG2UryrRCw8RHqXveJmQ74ND6e9mfK9u1Wovj3aQlW+Ll1fPX11lD0blqW7Nfc9vfVakj2of928qo9svXXUpj2IRZy9AxiBPKXkJzsGcbS9eicxPV7EB772z208lVyePW+VEj2qz1W9HUiJPY4XtT14NQg9r4EvPktImrwU0MY9/EfpvIRjYDzz4nq75IdZPYI/Cj7jDq09ryQQvancGrur1pw8DA4VPQvjTj2+uoK8f88evZMtbLztfVO9mkoYvd+78b19HFe9FlMkvrj5cr7xaOI9Am+JPe9NN71CYug9XK2UPQpjnjxoLSI7i/MAvYmnDz2DISY9/tJUPSDFbD1PZIq9nFQ0PQYs7jvFUhe+1jvKPaEBM70XyCG84oYTvYBjaz2WLxw9yItdPIbCjzyJJaI9fl4RvZP0/L0Pwxe+rIM9PHW9YT17Q2M8lU02PVGUyT1iLxy+Wj+ZPZEuSDz8ukI+OP5QPci+xTwBFsU8JlcXvdpyWL3fxwQ9oYB6vcS6BTzEVqq+hWvtulX1Rj72rsu9Vk0QPrK1lb2gBd698OaMvjc7rz1dYR8+ew6nPYJi571etxE+YDe/PDnMCT1ki7S+zblfPhKIu71zfoo9/wCBvjieEr7AVtE9iD/4vTn8jL42hc48rLu+PXLjRT0kI9U9N8gQPYMh9r2eQhG9z+YmPn6gbr1IO5e9pZu/vHR8Kb6x3P68W8c9vk04d776pT+++SCOPtQZJT5b1kM9jeFJvnYHK72IzQG+I8HyvBr8pj2v4lG9ge1zPqf8yD1TABY9N0plveplYz0i72Q+ilBqvv+/BT6o38o9+OIYvs4/LD5wZuu+bxrEvAkZWr51k0m8gtkZvR+wiD4tvya95VzZvjGnuT2nrq89r/tePjtIY74HEIU+d1b+PJ/E/T0TfBC+UP+bPZZfqT6a8oq9UjNdPshZET6MS10+heOaPvU5FT1L+OG+0bncPSLumL4TOB6+9F0HPqr/EL/aISs+2Mu4vY/2nz3nMxm+SS5qPSe0Wbw/JI2+3NKgPo6jQL6e+wk+Ewi5PVzzBz7vK+s8YlPwPLJMir0JHuc9rq5IPa7rfb7srwo9AwkQvjDZnT5j9yE8VIQZPi64Vr6JlQK9R7pGvNMQ8L1ukSU+aMQqvoLPezxflF09QNsBPnyuVj0+Vik+B2FJvRjLCTzeS7s9VI6FvQ6GFr5S5TI+ro+wPb4HIr5nV0O8Phu2PQdIp708fm+9WWcaPTX/cD4HBQY9ZppGOyOUyz2cdce7oM+KPDcyK74uFsC9B+pJvUIUjL3tZda9ksU4vmW1Cj7yOAW9kRGXvq9DIL3q5Vu83ERPPZRcwr2FBuY6VDtUvaZuML3PH5M9fCfyvSYMQb4YQXG+VpSsPQmuaD3qISg9a+1VvezvxL06IDw+GEyhPiAJqD0IgZy9yBu1O/pj/L09+/Q8vKjXOBCWx7l6pjI+X5OOPby7pz2rjiW+eq8nPtugrby/Y1A++CCfvUsYGb0BwyI+rrVlvdUDzD3GXAi9tvAHvePQWrwfBge+hY2YvX+MXj2j/Qq9hVwuPSi+TL2GSBm+ODicvhi1SLx+Mcs8vsIFPhbp971hfr49Pnl2vfsuBT19sY6+SpAEPkK+hr0aMbe9McqUPP1Pk72I9p+9TlNnvmwaJr5leyE9xi4jPkZzBb5H59099iMYPnlTPzygLJs9CUSmvffZgr1JXt29AmeoPS+8WL2y/5w7YBb2POz5er5d9D09TSSjPUDlLT4OqOU9HEHUvdWDEz3MTpQ93nqSPZUfEz26rNy9hGIwPpac1Dw6o7E9edk0PIUlEj4rQss82QwBPscMwjz6F4e8FJk1Pdh/wr3aBDg9tcTUvV9So70h6Bk9dmRhvo5DCz7H7UU9y+yiPPOM+bxWv4+71fkuvHXG/b3juRA9StDOPMJj1jozO7e8+MQOPoFgpL27A769jhYrvpV0YLwTwtK9uMcDvnmekbwZKYc9TNb9O+N6/jwOQcW9aEARPkFjvD36Ma693EU9Pv8LPj0P8Aw+uJzkPXLbsL1PDks8BnwEvjtLA75EgAK925DqvR36vD03R0G+wozfvcHDTj2zjrA9AnmSPZTxy7uZOB+817G9vdJ0Ej0DAK29WY9PvcgUfrywLyA9NcXEPdOsjb0ecVO919uIPfG6ZLz2IB29/p+EvUgROz3HH1I7IazUPcYWsDwIs4U9EU3/PRR4Nb40YDE+qf4BPUPtRrzrngW9oHhlvT9ymz2refO90TBVPapcrT1zCzy94POIvWA0Fzsm2+09EYU6PGL6OL7Hwhg+otokvaI8oL3PIEo7YRTWvTLmz7zDHzW9PEhqPSgfmD2eBCo9rHWfvdd7Kj5sKI68ZRKIPZ7RmT0M1f+9prydu59C3bxPxF++gW8OvUmtRDz5l6g90U5Gvj+rJj4Vhcu7YEmLPeKDHL0qQhs9dhEnvGOd172pZMs9Jd9NvQaaGrwJ7dO8Ir9KPDkQZr0OspQ8IWunPE/217ybj7I9+hukPVO7ODuakvE9WBWYvVZwzD0Wui+8f4ztvR3dzLxVlCm+r9o4PiCjMj31YLE9jpEYPVi1Yj2Gq2W9rcJIvnQVqr2frno9SYJ3Pc9X37zc/Ps9W70avoO8D7tvsWO+RgqdvWY/Nr3woFS9Rt5QvUbu4j0Vsea9ZsCjvGX0y70S0YW5bZ3lPX4qJr3WyXg7R1uhPURjm7wOKEi8XxZ1vL8IvD1be8O9QnFrvV4slr0APyq8jNBave6TW771ABu+oCjYPbiTNz7gmns7Jmc/vQQCKj25md69bpi8vVIcqDyl2Ao8/PyXPZeX3j3Hjts97IVivXU0Nj3A4+k98FeevcR9ED3+Is67ug7bvhG4xT4Buou+b/Ozvc2Sd76W6a49QTJlvkY86D1QsxU+dIDjvSBLpzx4UQQ+UGHvPB3nkr7gDpg+0d0hvhyt573VnHm+pvuXvH9qkL33BAq9mqC+PgQfob6PlWG+cmcJvsJTxT0RmlM+AHurvbQCnr5DgBA+BZdivlqT2L4SFZ++RDprvvV+orwdw/i9sSfGPS5WlT6618E+pw7gPjN7mD3h8Xo8uh4avvR1H70GUGW9aGbWPWWwh76Jmd08JHxhvg43a773UME+JM2ivuLPl74w+6E+Fg29Pjqk4b5YkgC+AvcqvgRr870kdyG9d7TZvci3pz382RA+J50DPuzxLb2Hk00+mpCHvpM7hL15ms690EPpvZ+EQr6ir0k+G8mIPjKvsL68+jQ+XFZyvAs0r717Dcy9Q5fkPQvbhD4GdDc+1x94Pd4PiD5guKi9JrcivRkmqD30fsa9CIGiPfGv0z0apEq+p9GCvtUWJj5ZC9Q8zde8vq6iEL3m+he9GcFEPsjrqL7AFtQ9rhpGvu5R3LxPuGW80cmIvnSdyz0CWKC+aKcOvCIRgT6TkS09DpQyvm9jg75jevA9GAyGPsc2gD4tQAQ+YvDSPT521L2Sq2u9NRsAvhJp